{
  "version": "1.0",
  "truncation": null,
  "padding": null,
  "added_tokens": [
    {
      "id": 0,
      "content": "[EOS]",
      "single_word": false,
      "lstrip": false,
      "rstrip": false,
      "normalized": false,
      "special": true
    },
    {
      "id": 1,
      "content": "[F0]",
      "single_word": false,
      "lstrip": false,
      "rstrip": false,
      "normalized": false,
      "special": true
    },
    {
      "id": 2,
      "content": "[F1]",
      "single_word": false,
      "lstrip": false,
      "rstrip": false,
      "normalized": false,
      "special": true
    },
    {
      "id": 3,
      "content": "[F2]",
      "single_word": false,
      "lstrip": false,
      "rstrip": false,
      "normalized": false,
      "special": true
    },
    {
      "id": 4,
      "content": "[F3]",
      "single_word": false,
      "lstrip": false,
      "rstrip": false,
      "normalized": false,
      "special": true
    },
    {
      "id": 5,
      "content": "[F4]",
      "single_word": false,
      "lstrip": false,
      "rstrip": false,
      "normalized": false,
      "special": true
    },
    {
      "id": 6,
      "content": "[F5]",
      "single_word": false,
      "lstrip": false,
      "rstrip": false,
      "normalized": false,
      "special": true
    },
    {
      "id": 7,
      "content": "[F6]",
      "single_word": false,
      "lstrip": false,
      "rstrip": false,
      "normalized": false,
      "special": true
    },
    {
      "id": 8,
      "content": "[F7]",
      "single_word": false,
      "lstrip": false,
      "rstrip": false,
      "normalized": false,
      "special": true
    }
  ],
  "normalizer": null,
  "pre_tokenizer": {
    "type": "ByteLevel",
    "add_prefix_space": false,
    "trim_offsets": true,
    "use_regex": true
  },
  "post_processor": null,
  "decoder": {
    "type": "ByteLevel",
    "add_prefix_space": true,
    "trim_offsets": true,
    "use_regex": true
  },
  "model": {
    "type": "BPE",
    "dropout": null,
    "unk_token": null,
    "continuing_subword_prefix": null,
    "end_of_word_suffix": null,
    "fuse_unk": false,
    "byte_fallback": false,
    "ignore_merges": false,
    "vocab": {
      "[EOS]": 0,
      "[F0]": 1,
      "[F1]": 2,
      "[F2]": 3,
      "[F3]": 4,
      "[F4]": 5,
      "[F5]": 6,
      "[F6]": 7,
      "[F7]": 8,
      "!": 9,
      "\"": 10,
      "#": 11,
      "$": 12,
      "%": 13,
      "&": 14,
      "'": 15,
      "(": 16,
      ")": 17,
      "*": 18,
      "+": 19,
      ",": 20,
      "-": 21,
      ".": 22,
      "/": 23,
      "0": 24,
      "1": 25,
      "2": 26,
      "3": 27,
      "4": 28,
      "5": 29,
      "6": 30,
      "7": 31,
      "8": 32,
      "9": 33,
      ":": 34,
      ";": 35,
      "<": 36,
      "=": 37,
      ">": 38,
      "?": 39,
      "@": 40,
      "A": 41,
      "B": 42,
      "C": 43,
      "D": 44,
      "E": 45,
      "F": 46,
      "G": 47,
      "H": 48,
      "I": 49,
      "J": 50,
      "K": 51,
      "L": 52,
      "M": 53,
      "N": 54,
      "O": 55,
      "P": 56,
      "Q": 57,
      "R": 58,
      "S": 59,
      "T": 60,
      "U": 61,
      "V": 62,
      "W": 63,
      "X": 64,
      "Y": 65,
      "Z": 66,
      "[": 67,
      "\\": 68,
      "]": 69,
      "^": 70,
      "_": 71,
      "`": 72,
      "a": 73,
      "b": 74,
      "c": 75,
      "d": 76,
      "e": 77,
      "f": 78,
      "g": 79,
      "h": 80,
      "i": 81,
      "j": 82,
      "k": 83,
      "l": 84,
      "m": 85,
      "n": 86,
      "o": 87,
      "p": 88,
      "q": 89,
      "r": 90,
      "s": 91,
      "t": 92,
      "u": 93,
      "v": 94,
      "w": 95,
      "x": 96,
      "y": 97,
      "z": 98,
      "{": 99,
      "|": 100,
      "}": 101,
      "~": 102,
      "¡": 103,
      "¢": 104,
      "£": 105,
      "¤": 106,
      "¥": 107,
      "¦": 108,
      "§": 109,
      "¨": 110,
      "©": 111,
      "ª": 112,
      "«": 113,
      "¬": 114,
      "®": 115,
      "¯": 116,
      "°": 117,
      "±": 118,
      "²": 119,
      "³": 120,
      "´": 121,
      "µ": 122,
      "¶": 123,
      "·": 124,
      "¸": 125,
      "¹": 126,
      "º": 127,
      "»": 128,
      "¼": 129,
      "½": 130,
      "¾": 131,
      "¿": 132,
      "À": 133,
      "Á": 134,
      "Â": 135,
      "Ã": 136,
      "Ä": 137,
      "Å": 138,
      "Æ": 139,
      "Ç": 140,
      "È": 141,
      "É": 142,
      "Ê": 143,
      "Ë": 144,
      "Ì": 145,
      "Í": 146,
      "Î": 147,
      "Ï": 148,
      "Ð": 149,
      "Ñ": 150,
      "Ò": 151,
      "Ó": 152,
      "Ô": 153,
      "Õ": 154,
      "Ö": 155,
      "×": 156,
      "Ø": 157,
      "Ù": 158,
      "Ú": 159,
      "Û": 160,
      "Ü": 161,
      "Ý": 162,
      "Þ": 163,
      "ß": 164,
      "à": 165,
      "á": 166,
      "â": 167,
      "ã": 168,
      "ä": 169,
      "å": 170,
      "æ": 171,
      "ç": 172,
      "è": 173,
      "é": 174,
      "ê": 175,
      "ë": 176,
      "ì": 177,
      "í": 178,
      "î": 179,
      "ï": 180,
      "ð": 181,
      "ñ": 182,
      "ò": 183,
      "ó": 184,
      "ô": 185,
      "õ": 186,
      "ö": 187,
      "÷": 188,
      "ø": 189,
      "ù": 190,
      "ú": 191,
      "û": 192,
      "ü": 193,
      "ý": 194,
      "þ": 195,
      "ÿ": 196,
      "Ā": 197,
      "ā": 198,
      "Ă": 199,
      "ă": 200,
      "Ą": 201,
      "ą": 202,
      "Ć": 203,
      "ć": 204,
      "Ĉ": 205,
      "ĉ": 206,
      "Ċ": 207,
      "ċ": 208,
      "Č": 209,
      "č": 210,
      "Ď": 211,
      "ď": 212,
      "Đ": 213,
      "đ": 214,
      "Ē": 215,
      "ē": 216,
      "Ĕ": 217,
      "ĕ": 218,
      "Ė": 219,
      "ė": 220,
      "Ę": 221,
      "ę": 222,
      "Ě": 223,
      "ě": 224,
      "Ĝ": 225,
      "ĝ": 226,
      "Ğ": 227,
      "ğ": 228,
      "Ġ": 229,
      "ġ": 230,
      "Ģ": 231,
      "ģ": 232,
      "Ĥ": 233,
      "ĥ": 234,
      "Ħ": 235,
      "ħ": 236,
      "Ĩ": 237,
      "ĩ": 238,
      "Ī": 239,
      "ī": 240,
      "Ĭ": 241,
      "ĭ": 242,
      "Į": 243,
      "į": 244,
      "İ": 245,
      "ı": 246,
      "Ĳ": 247,
      "ĳ": 248,
      "Ĵ": 249,
      "ĵ": 250,
      "Ķ": 251,
      "ķ": 252,
      "ĸ": 253,
      "Ĺ": 254,
      "ĺ": 255,
      "Ļ": 256,
      "ļ": 257,
      "Ľ": 258,
      "ľ": 259,
      "Ŀ": 260,
      "ŀ": 261,
      "Ł": 262,
      "ł": 263,
      "Ń": 264,
      "or": 265,
      "en": 266,
      "th": 267,
      "ar": 268,
      "el": 269,
      "Ġa": 270,
      "in": 271,
      "Ġr": 272,
      "the": 273,
      "er": 274,
      "ow": 275,
      "Ġthe": 276,
      "Ġc": 277,
      "as": 278,
      "um": 279,
      "ĠT": 280,
      "il": 281,
      "ed": 282,
      "Ġs": 283,
      "Nor": 284,
      "ĠB": 285,
      "Fen": 286,
      "Ġw": 287,
      "Ġt": 288,
      "ĠNor": 289,
      "ash": 290,
      "ĠTar": 291,
      "ĠBel": 292,
      "ĠFen": 293,
      "nd": 294,
      "eth": 295,
      "Ġf": 296,
      "ou": 297,
      "ol": 298,
      "on": 299,
      "at": 300,
      "ing": 301,
      "es": 302,
      "Ġb": 303,
      "Ġto": 304,
      "ord": 305,
      "Ġand": 306,
      "he": 307,
      "ic": 308,
      "Ġi": 309,
      "Ġl": 310,
      "ad": 311,
      "ag": 312,
      "Ġd": 313,
      "ell": 314,
      "ere": 315,
      "mo": 316,
      "Ġin": 317,
      "Ġo": 318,
      "Ġp": 319,
      "Ġof": 320,
      "hol": 321,
      "oo": 322,
      "wic": 323,
      "ai": 324,
      "mere": 325,
      "holt": 326,
      "our": 327,
      "ate": 328,
      "wick": 329,
      "fell": 330,
      "moor": 331,
      "ford": 332,
      "om": 333,
      "Ġre": 334,
      "gate": 335,
      "Ġg": 336,
      "den": 337,
      "Ġ1": 338,
      "Ġst": 339,
      "al": 340,
      "ood": 341,
      "gh": 342,
      "Ġn": 343,
      "ri": 344,
      "ts": 345,
      "Ġh": 346,
      "'s": 347,
      "ĠC": 348,
      "Ġm": 349,
      "le": 350,
      "age": 351,
      "os": 352,
      "ter": 353,
      "ĠThe": 354,
      "oad": 355,
      "an": 356,
      "Ġ~": 357,
      "Ġis": 358,
      "bl": 359,
      "Ġrai": 360,
      "am": 361,
      "Ġstor": 362,
      "one": 363,
      "ee": 364,
      "Ġcar": 365,
      "Ġcour": 366,
      "ork": 367,
      "Ġne": 368,
      "Ġdr": 369,
      "ce": 370,
      "own": 371,
      "ay": 372,
      "Ġcom": 373,
      "Ġroad": 374,
      "Ġcr": 375,
      "Ġgo": 376,
      "riage": 377,
      "Ġcarriage": 378,
      "Ġwas": 379,
      "Ġ?": 380,
      "Ġif": 381,
      "Ġu": 382,
      "Ġfor": 383,
      "Ġwork": 384,
      "agon": 385,
      "Ġdragon": 386,
      "Ġcomp": 387,
      "re": 388,
      "ght": 389,
      "ard": 390,
      "any": 391,
      "Ġcompany": 392,
      "Ġrep": 393,
      "ot": 394,
      "Ġas": 395,
      "oin": 396,
      "fter": 397,
      "ers": 398,
      "air": 399,
      "Ġrepair": 400,
      "ves": 401,
      "The": 402,
      "ĠA": 403,
      "Ġsh": 404,
      "sed": 405,
      "ĠNorash": 406,
      "ĠNorum": 407,
      "ĠTara": 408,
      "ion": 409,
      "Ġbu": 410,
      "ĠFenum": 411,
      "Ġat": 412,
      "Ġafter": 413,
      "ost": 414,
      "ĠTarash": 415,
      "ĠBelen": 416,
      "ĠNoril": 417,
      "ĠFenor": 418,
      "ound": 419,
      "ĠNora": 420,
      "ĠTaren": 421,
      "bb": 422,
      "rom": 423,
      "Ġfrom": 424,
      "Ġraid": 425,
      "ul": 426,
      "ĠTarow": 427,
      "ĠFena": 428,
      "ĠFenil": 429,
      "ĠBelum": 430,
      "ĠNoror": 431,
      "Ġtr": 432,
      "ear": 433,
      "ĠNoren": 434,
      "ĠBelash": 435,
      "ĠBelow": 436,
      "oc": 437,
      "ĠBelor": 438,
      "ĠNorow": 439,
      "ĠW": 440,
      "ut": 441,
      "ĠS": 442,
      "ĠTaril": 443,
      "ĠTarum": 444,
      "ĠBela": 445,
      "ort": 446,
      "ĠBelil": 447,
      "ĠFenash": 448,
      "ĠFenen": 449,
      "ĠTaror": 450,
      "Ġth": 451,
      "ĠFenow": 452,
      "der": 453,
      "Ġfo": 454,
      "Ġnew": 455,
      "Ġits": 456,
      "op": 457,
      "Ġpe": 458,
      "ols": 459,
      "Ġri": 460,
      "ĠNoreth": 461,
      "Ġcrown": 462,
      "ĠBeleth": 463,
      "Ġac": 464,
      "ĠCour": 465,
      "ge": 466,
      "ĠFeneth": 467,
      "ĠTareth": 468,
      "ue": 469,
      "to": 470,
      "Ġinto": 471,
      "eek": 472,
      "ch": 473,
      "Ġgoing": 474,
      "Ġcourt": 475,
      "Ġshort": 476,
      "Ġby": 477,
      "un": 478,
      "ak": 479,
      "up": 480,
      "rou": 481,
      "cord": 482,
      "Ġround": 483,
      "Ġword": 484,
      "Ġaccord": 485,
      "Ġaccording": 486,
      "ore": 487,
      "blin": 488,
      "pt": 489,
      "ubl": 490,
      "Ġpubl": 491,
      "Ġworking": 492,
      "bbot": 493,
      "Ġpublic": 494,
      "Ġan": 495,
      "Ġrel": 496,
      "Ġol": 497,
      "Ġres": 498,
      "Ġrum": 499,
      "Ġtrue": 500,
      "Ġrumour": 501,
      "Ġfood": 502,
      "Ġtools": 503,
      "Ġwh": 504,
      "ec": 505,
      "Ġstory": 506,
      "Ġright": 507,
      "Ġgoblin": 508,
      "au": 509,
      "ith": 510,
      "Ġwith": 511,
      "erd": 512,
      "Ġch": 513,
      "Ġherd": 514,
      "join": 515,
      "Ġjoin": 516,
      "Ġla": 517,
      "Ġwood": 518,
      "Ġso": 519,
      "Ġsay": 520,
      "ople": 521,
      "Ġpeople": 522,
      "Ġlost": 523,
      "Ġdel": 524,
      "Ġsl": 525,
      "Ġroads": 526,
      "is": 527,
      "ain": 528,
      "Bel": 529,
      "Ġraided": 530,
      "Tar": 531,
      "ted": 532,
      "Ġfell": 533,
      "Ġthrou": 534,
      "Ġthrough": 535,
      "Ġwar": 536,
      "Ġcl": 537,
      "ĠBoo": 538,
      "ĠBook": 539,
      "id": 540,
      "und": 541,
      "Ġsp": 542,
      "ey": 543,
      "Ġe": 544,
      "oward": 545,
      "Ġtoward": 546,
      "sing": 547,
      "rn": 548,
      "ĠCup": 549,
      "Ġstone": 550,
      "rown": 551,
      "ĠCrown": 552,
      "Ġad": 553,
      "ethe": 554,
      "ses": 555,
      "out": 556,
      "ds": 557,
      "alves": 558,
      "ade": 559,
      "ice": 560,
      "year": 561,
      "Ġyear": 562,
      "Ġbec": 563,
      "loc": 564,
      "Ġfloc": 565,
      "Ġflock": 566,
      "ly": 567,
      "Ġcourts": 568,
      "Ġmade": 569,
      "Ġcalves": 570,
      "ĠCourt": 571,
      "ĠWood": 572,
      "ef": 573,
      "erv": 574,
      "ghter": 575,
      "aughter": 576,
      "Ġslaughter": 577,
      "ace": 578,
      "cri": 579,
      "ium": 580,
      "kee": 581,
      "oy": 582,
      "orium": 583,
      "ings": 584,
      "Ġworks": 585,
      "ult": 586,
      "ĠScri": 587,
      "Ġfoal": 588,
      "ptorium": 589,
      "Ġanoin": 590,
      "keep": 591,
      "ĠScriptorium": 592,
      "ation": 593,
      "Ġrelation": 594,
      "Ġrelations": 595,
      "ke": 596,
      "Ġold": 597,
      "ach": 598,
      "eds": 599,
      "Ġreach": 600,
      "Ġraised": 601,
      "ays": 602,
      "Ġreaches": 603,
      "eded": 604,
      "ĠAbbot": 605,
      "ild": 606,
      "Ġga": 607,
      "Ġlore": 608,
      "Ġrepairs": 609,
      "ent": 610,
      "Ġshe": 611,
      "Ġhe": 612,
      "orn": 613,
      "Ġclos": 614,
      "dder": 615,
      "Ġloc": 616,
      "Ġfodder": 617,
      "Ġlocal": 618,
      "heat": 619,
      "umfell": 620,
      "ilgate": 621,
      "owfell": 622,
      "ummere": 623,
      "ilden": 624,
      "enmere": 625,
      "awick": 626,
      "amoor": 627,
      "enwick": 628,
      "owgate": 629,
      "etheth": 630,
      "tone": 631,
      "orholt": 632,
      "aden": 633,
      "enford": 634,
      "owwick": 635,
      "enholt": 636,
      "owholt": 637,
      "ilholt": 638,
      "ormoor": 639,
      "umgate": 640,
      "umford": 641,
      "owmere": 642,
      "enden": 643,
      "owmoor": 644,
      "owden": 645,
      "ilwick": 646,
      "ormere": 647,
      "ilford": 648,
      "afell": 649,
      "ashgate": 650,
      "Ġfund": 651,
      "ought": 652,
      "lec": 653,
      "oard": 654,
      "ashfell": 655,
      "Ġbr": 656,
      "agate": 657,
      "Ġhoard": 658,
      "orford": 659,
      "ilmoor": 660,
      "ashmoor": 661,
      "ashden": 662,
      "orwick": 663,
      "ashholt": 664,
      "engate": 665,
      "ashmere": 666,
      "aholt": 667,
      "ashford": 668,
      "cce": 669,
      "ucce": 670,
      "orgate": 671,
      "Ġsucce": 672,
      "umholt": 673,
      "umwick": 674,
      "umden": 675,
      "Ġresum": 676,
      "amere": 677,
      "owford": 678,
      "ilmere": 679,
      "ilfell": 680,
      "orfell": 681,
      "Ġru": 682,
      "ashwick": 683,
      "enfell": 684,
      "enmoor": 685,
      "ummoor": 686,
      "se": 687,
      "aford": 688,
      "orden": 689,
      "fe": 690,
      "Ġweek": 691,
      "Ġtak": 692,
      "Ġstore": 693,
      "Ġraids": 694,
      "ĠStone": 695,
      "Ġtakes": 696,
      "inds": 697,
      "Ġbinds": 698,
      "Ġcrowns": 699,
      "ls": 700,
      "ethfell": 701,
      "ok": 702,
      "Ġtook": 703,
      "ethmere": 704,
      "ver": 705,
      "Ġwent": 706,
      "Ġcut": 707,
      "ethholt": 708,
      "ethford": 709,
      "ethwick": 710,
      "Ġpon": 711,
      "ethmoor": 712,
      "ning": 713,
      "Ġwarning": 714,
      "Ġcon": 715,
      "ting": 716,
      "ome": 717,
      "les": 718,
      "ool": 719,
      "pion": 720,
      "Ġcol": 721,
      "Ġseek": 722,
      "ampion": 723,
      "Ġbuild": 724,
      "Ġchampion": 725,
      "ide": 726,
      "im": 727,
      "ney": 728,
      "tu": 729,
      "Ġcou": 730,
      "Ġretu": 731,
      "Ġgr": 732,
      "Ġchim": 733,
      "Ġcoun": 734,
      "Ġreturn": 735,
      "Ġchimney": 736,
      "sw": 737,
      "ethgate": 738,
      "Ġ3": 739,
      "Ġ2": 740,
      "ethden": 741,
      "Ġstores": 742,
      "ded": 743,
      "Ġadded": 744,
      "Ġused": 745,
      "Ġstored": 746,
      "Ġmak": 747,
      "Ġdelay": 748,
      "oney": 749,
      "Ġrepaired": 750,
      "Ġjoined": 751,
      "Ġup": 752,
      "li": 753,
      "ep": 754,
      "Ġwhen": 755,
      "Ġabbot": 756,
      "Ġbre": 757,
      "Ġwere": 758,
      "ier": 759,
      "wo": 760,
      "ars": 761,
      "Ġrun": 762,
      "Ġtwo": 763,
      "Ġle": 764,
      "Ġnow": 765,
      "Ġraises": 766,
      "Ġcourier": 767,
      "ĠWheat": 768,
      "Ġruns": 769,
      "Ġun": 770,
      "Ġfal": 771,
      "Ġfalls": 772,
      "ĠR": 773,
      "Ġslaughtered": 774,
      "Ġmoney": 775,
      "ck": 776,
      "Ġlack": 777,
      "ared": 778,
      "Ġ6": 779,
      "Ġclosed": 780,
      "Ġsome": 781,
      "ame": 782,
      "Ġ15": 783,
      "Ġ7": 784,
      "Ġ14": 785,
      "Ġneeded": 786,
      "Ġ18": 787,
      "Ġwhere": 788,
      "ail": 789,
      "and": 790,
      "cil": 791,
      "eal": 792,
      "ful": 793,
      "ger": 794,
      "hkeep": 795,
      "ir": 796,
      "mpt": 797,
      "ring": 798,
      "st": 799,
      "shkeep": 800,
      "tw": 801,
      "ten": 802,
      "ton": 803,
      "tle": 804,
      "wful": 805,
      "ence": 806,
      "arves": 807,
      "arge": 808,
      "Ġroo": 809,
      "Ġroy": 810,
      "Ġcat": 811,
      "Ġcle": 812,
      "Ġcult": 813,
      "ast": 814,
      "umbl": 815,
      "ilence": 816,
      "Ġseal": 817,
      "Ġsilence": 818,
      "Ġtarge": 819,
      "Ġbee": 820,
      "Ġbles": 821,
      "Ġbir": 822,
      "head": 823,
      "Ġload": 824,
      "Ġlast": 825,
      "Ġdun": 826,
      "Ġpage": 827,
      "Ġpre": 828,
      "oods": 829,
      "Ġnam": 830,
      "Ġhost": 831,
      "Ġhid": 832,
      "Ġharves": 833,
      "Ġmut": 834,
      "Ġnetw": 835,
      "Ġdrought": 836,
      "Ġcros": 837,
      "Ġcrumbl": 838,
      "ĠAshkeep": 839,
      "bbey": 840,
      "Ġtrail": 841,
      "geon": 842,
      "unger": 843,
      "Ġreserv": 844,
      "Ġwithout": 845,
      "Ġlawful": 846,
      "Ġdeli": 847,
      "Ġspace": 848,
      "Ġspring": 849,
      "Ġempt": 850,
      "ervice": 851,
      "Ġfoals": 852,
      "Ġlocally": 853,
      "lect": 854,
      "Ġbrood": 855,
      "Ġruin": 856,
      "Ġcollect": 857,
      "Ġseeking": 858,
      "Ġbuildings": 859,
      "Ġcouncil": 860,
      "tender": 861,
      "Ġroost": 862,
      "Ġroyal": 863,
      "Ġcattle": 864,
      "Ġtarget": 865,
      "Ġbeef": 866,
      "Ġblessing": 867,
      "Ġbirth": 868,
      "Ġdungeon": 869,
      "Ġpretender": 870,
      "Ġhidden": 871,
      "Ġharvest": 872,
      "Ġmutton": 873,
      "Ġnetwork": 874,
      "ĠAshkeepers": 875,
      "Ġtrailhead": 876,
      "Ġreserve": 877,
      "Ġempty": 878,
      "ap": 879,
      "bs": 880,
      "dge": 881,
      "ip": 882,
      "ied": 883,
      "ire": 884,
      "ief": 885,
      "lings": 886,
      "lli": 887,
      "men": 888,
      "voy": 889,
      "Ġkeep": 890,
      "arke": 891,
      "Ġalli": 892,
      "Ġrol": 893,
      "ily": 894,
      "Ġwai": 895,
      "Ġtre": 896,
      "Ġfam": 897,
      "Ġfire": 898,
      "aty": 899,
      "Ġbri": 900,
      "Ġli": 901,
      "Ġdam": 902,
      "Ġdied": 903,
      "Ġreop": 904,
      "Ġnot": 905,
      "Ġmarke": 906,
      "ance": 907,
      "ambs": 908,
      "Ġship": 909,
      "Ġbuy": 910,
      "Ġpeace": 911,
      "Ġrelief": 912,
      "Ġolder": 913,
      "Ġadult": 914,
      "Ġyearlings": 915,
      "Ġanointing": 916,
      "Ġconvoy": 917,
      "Ġgrain": 918,
      "aper": 919,
      "ments": 920,
      "Ġalliance": 921,
      "Ġroll": 922,
      "Ġtreaty": 923,
      "Ġfamily": 924,
      "Ġbridge": 925,
      "Ġdamage": 926,
      "Ġreopen": 927,
      "Ġnotice": 928,
      "Ġmarket": 929,
      "Ġshipments": 930,
      "bear": 931,
      "ithe": 932,
      "Ġ4": 933,
      "Ġrul": 934,
      "ther": 935,
      "Ġtithe": 936,
      "aders": 937,
      "moke": 938,
      "Ġreaders": 939,
      "Ġburn": 940,
      "issing": 941,
      "Ġgather": 942,
      "bearers": 943,
      "Ġruler": 944,
      "ead": 945,
      "Ġdead": 946,
      "Ġash": 947,
      "sworn": 948,
      "Ġ8": 949,
      "Ġ5": 950,
      "Ġ10": 951,
      "for": 952,
      "ason": 953,
      "Ġ13": 954,
      "Ġ17": 955,
      "Ġ9": 956,
      "Ġ16": 957,
      "et": 958,
      "Ġ11": 959,
      "Ġ12": 960,
      "Ġ19": 961,
      "Ġmaking": 962,
      "Ġsucceeded": 963,
      "Ġfunding": 964,
      "Ġresumed": 965,
      "side": 966,
      "ve": 967,
      "Ġgoods": 968,
      "Ġgave": 969,
      "Ġdelayed": 970,
      "ab": 971,
      "Ġstab": 972,
      "Ġyears": 973,
      "Ġstable": 974,
      "inis": 975,
      "Ġfinis": 976,
      "Ġmissing": 977,
      "Ġsheep": 978,
      "Ġfinish": 979,
      "Ġborn": 980,
      "ĠCou": 981,
      "Ġservice": 982,
      "Ġhand": 983,
      "qu": 984,
      "Ġqu": 985,
      "Ġpony": 986,
      "Ġquar": 987,
      "Ġon": 988,
      "infor": 989,
      "Ġlambs": 990,
      "Ġreinfor": 991,
      "ause": 992,
      "Ġbecause": 993,
      "Ġlife": 994,
      "Ġpas": 995,
      "ew": 996,
      "Ġsup": 997,
      "Ġsupp": 998,
      "Me": 999,
      "Un": 1000,
      "fund": 1001,
      "it": 1002,
      "ond": 1003,
      "ools": 1004,
      "ry": 1005,
      "uts": 1006,
      "wat": 1007,
      "ĠG": 1008,
      "Ġen": 1009,
      "Ġone": 1010,
      "ĠMe": 1011,
      "ĠUn": 1012,
      "ends": 1013,
      "art": 1014,
      "inter": 1015,
      "Ġcond": 1016,
      "Ġcuts": 1017,
      "ĠTools": 1018,
      "Ġwinter": 1019,
      "Ġdays": 1020,
      "omes": 1021,
      "Ġhas": 1022,
      "Ġmil": 1023,
      "Ġmason": 1024,
      "ters": 1025,
      "ant": 1026,
      "Ġuses": 1027,
      "Ġuse": 1028,
      "Ġbund": 1029,
      "ched": 1030,
      "Ġjoins": 1031,
      "Ġbecomes": 1032,
      "Ġslaughters": 1033,
      "Ġsucceeds": 1034,
      "Ġresumes": 1035,
      "Ġweeks": 1036,
      "Ġbreeds": 1037,
      "Ġunwat": 1038,
      "funded": 1039,
      "ition": 1040,
      "Ġenters": 1041,
      "ĠMeat": 1042,
      "ĠUnfunded": 1043,
      "Ġcondition": 1044,
      "Ġunwatched": 1045,
      "main": 1046,
      "Ġremain": 1047,
      "Ġreturns": 1048,
      "aw": 1049,
      "fo": 1050,
      "ho": 1051,
      "Ġbecame": 1052,
      "Ġran": 1053,
      "Ġput": 1054,
      "Ġlef": 1055,
      "Ġleft": 1056,
      "Ġbrou": 1057,
      "Ġbrought": 1058,
      "glec": 1059,
      "ies": 1060,
      "Ġout": 1061,
      "Ġsought": 1062,
      "Ġwore": 1063,
      "nder": 1064,
      "Ġlai": 1065,
      "Ġcare": 1066,
      "Ġneglec": 1067,
      "Ġunder": 1068,
      "utch": 1069,
      "Ġland": 1070,
      "Ġclutch": 1071,
      "Ġanointed": 1072,
      "Ġheard": 1073,
      "vered": 1074,
      "Ġponies": 1075,
      "Ġreturned": 1076,
      "Ġcleared": 1077,
      "Ġsealed": 1078,
      "Ġnamed": 1079,
      "Ġcrossed": 1080,
      "Ġcrumbled": 1081,
      "Ġdelivered": 1082,
      "Ġlaid": 1083,
      "Ġneglected": 1084,
      "bout": 1085,
      "med": 1086,
      "pec": 1087,
      "xpec": 1088,
      "Ġabout": 1089,
      "Ġwheat": 1090,
      "Ġformed": 1091,
      "Ġexpec": 1092,
      "Ġbred": 1093,
      "Ġkeeper": 1094,
      "Ġreopened": 1095,
      "Ġgathered": 1096,
      "Ġexpected": 1097,
      "Ġfed": 1098,
      "Ġbound": 1099,
      "ose": 1100,
      "After": 1101,
      "read": 1102,
      "Ġgain": 1103,
      "Ġgained": 1104,
      "Ġthat": 1105,
      "Paper": 1106,
      "Ġcrew": 1107,
      "Ġcrews": 1108,
      "Ġsomeone": 1109,
      "eh": 1110,
      "ind": 1111,
      "Ġbeh": 1112,
      "Ġrule": 1113,
      "Ġbehind": 1114,
      "Ġhunger": 1115,
      "Ġabbey": 1116,
      "orm": 1117,
      "ears": 1118,
      "Ġroadside": 1119,
      "ga": 1120,
      "owm": 1121,
      "wi": 1122,
      "umm": 1123,
      "ags": 1124,
      "ĠRags": 1125,
      "ilm": 1126,
      "enf": 1127,
      "oadside": 1128,
      "enm": 1129,
      "ater": 1130,
      "Ġlater": 1131,
      "Ġwhat": 1132,
      "ward": 1133,
      "Ġover": 1134,
      "Ġforward": 1135,
      "Ġburned": 1136,
      "Hunger": 1137,
      "umf": 1138,
      "Ġreport": 1139,
      "Ġfinished": 1140,
      "Ġreported": 1141,
      "Ġ33": 1142,
      "ower": 1143,
      "Ġdown": 1144,
      "Ġpower": 1145,
      "ĠNoretheth": 1146,
      "Ġwool": 1147,
      "Ġsheared": 1148,
      "Ġrose": 1149,
      "ilf": 1150,
      "aded": 1151,
      "Ġheaded": 1152,
      "ried": 1153,
      "Ġquarried": 1154,
      "Ġpaper": 1155,
      "Ġdelaying": 1156,
      "Ġtri": 1157,
      "Ġpost": 1158,
      "Ġtrip": 1159,
      "Ġposted": 1160,
      "ced": 1161,
      "Ġsmoke": 1162,
      "Ġwaited": 1163,
      "Ġreinforced": 1164,
      "Cour": 1165,
      "Court": 1166,
      "tin": 1167,
      "ued": 1168,
      "Ġsle": 1169,
      "Ġcontin": 1170,
      "Ġslew": 1171,
      "Ġcontinued": 1172,
      "Ġfunded": 1173,
      "Ġbread": 1174,
      "ĠTaretheth": 1175,
      "ving": 1176,
      "Ġpassed": 1177,
      "ĠBeletheth": 1178,
      "Its": 1179,
      "aves": 1180,
      "cal": 1181,
      "cends": 1182,
      "des": 1183,
      "em": 1184,
      "gg": 1185,
      "gal": 1186,
      "ives": 1187,
      "lot": 1188,
      "mon": 1189,
      "not": 1190,
      "pts": 1191,
      "res": 1192,
      "ree": 1193,
      "su": 1194,
      "scal": 1195,
      "tore": 1196,
      "tant": 1197,
      "vel": 1198,
      "vers": 1199,
      "went": 1200,
      "Ġmo": 1201,
      "ĠPaper": 1202,
      "ĠIts": 1203,
      "Ġage": 1204,
      "ery": 1205,
      "Ġcow": 1206,
      "Ġcan": 1207,
      "ĠTool": 1208,
      "ĠTwent": 1209,
      "ĠBread": 1210,
      "Ġwhol": 1211,
      "Ġwant": 1212,
      "Ġwears": 1213,
      "old": 1214,
      "escends": 1215,
      "Ġbak": 1216,
      "Ġlos": 1217,
      "Ġlays": 1218,
      "Ġday": 1219,
      "Ġdue": 1220,
      "Ġdis": 1221,
      "Ġdef": 1222,
      "Ġdescends": 1223,
      "Ġinside": 1224,
      "Ġpos": 1225,
      "Ġpart": 1226,
      "Ġpres": 1227,
      "Ġreal": 1228,
      "Ġgives": 1229,
      "cepts": 1230,
      "Ġcommon": 1231,
      "ĠWeek": 1232,
      "ĠWool": 1233,
      "Ġthis": 1234,
      "Ġthree": 1235,
      "Ġrises": 1236,
      "Ġrides": 1237,
      "Ġaccepts": 1238,
      "Ġansw": 1239,
      "Ġrestore": 1240,
      "Ġwoodlot": 1241,
      "Ġdelays": 1242,
      "Ġspends": 1243,
      "Ġever": 1244,
      "Ġegg": 1245,
      "Ġanoints": 1246,
      "Ġshears": 1247,
      "Ġhears": 1248,
      "Ġheart": 1249,
      "Ġclose": 1250,
      "Ġcloses": 1251,
      "Ġfunds": 1252,
      "Ġweekly": 1253,
      "Ġcolt": 1254,
      "Ġseeks": 1255,
      "Ġbuilders": 1256,
      "Ġground": 1257,
      "Ġmake": 1258,
      "Ġleaves": 1259,
      "Ġlegal": 1260,
      "Ġlevel": 1261,
      "ĠRaw": 1262,
      "Ġclears": 1263,
      "Ġnames": 1264,
      "Ġcrossing": 1265,
      "Ġcrumbles": 1266,
      "Ġdelivers": 1267,
      "Ġkeeps": 1268,
      "Ġwaits": 1269,
      "Ġfinishes": 1270,
      "Ġquarry": 1271,
      "Ġreinforce": 1272,
      "Ġpass": 1273,
      "Ġsupply": 1274,
      "ĠGem": 1275,
      "ĠGold": 1276,
      "Ġmill": 1277,
      "Ġmills": 1278,
      "Ġmasons": 1279,
      "Ġmasonry": 1280,
      "Ġbundle": 1281,
      "Ġbundles": 1282,
      "Ġremains": 1283,
      "Ġ330": 1284,
      "sure": 1285,
      "scale": 1286,
      "Ġmoves": 1287,
      "Ġcannot": 1288,
      "ĠTwenty": 1289,
      "Ġwhole": 1290,
      "Ġbakery": 1291,
      "Ġloses": 1292,
      "Ġdistant": 1293,
      "Ġdefers": 1294,
      "Ġposts": 1295,
      "Ġpressure": 1296,
      "ĠWeekly": 1297,
      "Ġanswers": 1298,
      "Ġevery": 1299,
      "Ġeggs": 1300,
      "ĠGems": 1301,
      "eeds": 1302,
      "igh": 1303,
      "til": 1304,
      "owf": 1305,
      "Ġfeeds": 1306,
      "olen": 1307,
      "Ġstolen": 1308,
      "Ġnigh": 1309,
      "Ġcomes": 1310,
      "ĠSmoke": 1311,
      "Ġslays": 1312,
      "Ġcount": 1313,
      "Ġchimneys": 1314,
      "Ġuntil": 1315,
      "Ġburns": 1316,
      "Ġgathers": 1317,
      "Ġnights": 1318,
      "Ġshortage": 1319,
      "orf": 1320,
      "Tarow": 1321,
      "Some": 1322,
      "Belum": 1323,
      "Fenow": 1324,
      "ĠFenetheth": 1325,
      "amo": 1326,
      "Belor": 1327,
      "Taren": 1328,
      "af": 1329,
      "de": 1330,
      "Below": 1331,
      "Fenum": 1332,
      "Fena": 1333,
      "Norash": 1334,
      "Belen": 1335,
      "Fenen": 1336,
      "Tarum": 1337,
      "Noren": 1338,
      "Fenor": 1339,
      "Beleth": 1340,
      "Fenil": 1341,
      "Taror": 1342,
      "Taril": 1343,
      "Tarash": 1344,
      "Belash": 1345,
      "Norum": 1346,
      "Tara": 1347,
      "Noror": 1348,
      "Bela": 1349,
      "Noril": 1350,
      "Norow": 1351,
      "Belil": 1352,
      "Fenash": 1353,
      "Nora": 1354,
      "Noreth": 1355,
      "Feneth": 1356,
      "ĠHunger": 1357,
      "ĠAn": 1358,
      "ĠAbbey": 1359,
      "ethet": 1360,
      "ĠRoadside": 1361,
      "Tareth": 1362,
      "org": 1363,
      "eng": 1364,
      "Mason": 1365,
      "aho": 1366,
      "umg": 1367,
      "Masons": 1368,
      "Ġwho": 1369,
      "Bread": 1370,
      "Ġslain": 1371,
      "orw": 1372,
      "umh": 1373,
      "ilw": 1374,
      "Ġliving": 1375,
      "Lambs": 1376,
      "On": 1377,
      "Roadside": 1378,
      "Smoke": 1379,
      "Ġfear": 1380,
      "Ġcoming": 1381,
      "Ġwaiting": 1382,
      "Ġsupport": 1383,
      "Road": 1384,
      "fice": 1385,
      "Ġoffice": 1386,
      "Go": 1387,
      "In": 1388,
      "ilg": 1389,
      "Goblin": 1390,
      "owh": 1391,
      "Pon": 1392,
      "Pony": 1393,
      "New": 1394,
      "Stone": 1395,
      "Ġcame": 1396,
      "ethf": 1397,
      "awi": 1398,
      "Hand": 1399,
      "Service": 1400,
      "Ġrank": 1401,
      "Wool": 1402,
      "afe": 1403,
      "aring": 1404,
      "Ġshearing": 1405,
      "Le": 1406,
      "aving": 1407,
      "Leaving": 1408,
      "Abbey": 1409,
      "Wood": 1410,
      "cut": 1411,
      "Woodcut": 1412,
      "Woodcutting": 1413,
      "com": 1414,
      "elcom": 1415,
      "owd": 1416,
      "Ġwelcom": 1417,
      "ĠCo": 1418,
      "Ġwelcomed": 1419,
      "At": 1420,
      "She": 1421,
      "Th": 1422,
      "leted": 1423,
      "Ġcompleted": 1424,
      "Sheep": 1425,
      "There": 1426,
      "Bu": 1427,
      "Food": 1428,
      "Money": 1429,
      "Ġar": 1430,
      "ong": 1431,
      "Ġlong": 1432,
      "ilders": 1433,
      "Someone": 1434,
      "Builders": 1435,
      "Ġarose": 1436,
      "Missing": 1437,
      "lam": 1438,
      "Ġblam": 1439,
      "lies": 1440,
      "Ġburning": 1441,
      "Ġsupplies": 1442,
      "Ġblamed": 1443,
      "Years": 1444,
      "An": 1445,
      "enw": 1446,
      "ashf": 1447,
      "Ġled": 1448,
      "Lore": 1449,
      "Rep": 1450,
      "orh": 1451,
      "airs": 1452,
      "Repairs": 1453,
      "Calves": 1454,
      "oww": 1455,
      "ashm": 1456,
      "aga": 1457,
      "umw": 1458,
      "Goods": 1459,
      "ilh": 1460,
      "umd": 1461,
      "ethm": 1462,
      "end": 1463,
      "owg": 1464,
      "afo": 1465,
      "enh": 1466,
      "ah": 1467,
      "Ġ20": 1468,
      "ĠNoraeth": 1469,
      "Ġ102": 1470,
      "enfe": 1471,
      "Ġ76": 1472,
      "ummo": 1473,
      "Ġ144": 1474,
      "amoo": 1475,
      "ilmo": 1476,
      "Ġ29": 1477,
      "enwi": 1478,
      "Ġ60": 1479,
      "Ġ61": 1480,
      "Ġ88": 1481,
      "Ġ155": 1482,
      "Ġ188": 1483,
      "Ġ178": 1484,
      "orga": 1485,
      "owfo": 1486,
      "owga": 1487,
      "ilfe": 1488,
      "Ġ69": 1489,
      "umfe": 1490,
      "ashw": 1491,
      "Ġ159": 1492,
      "Ġ43": 1493,
      "Ġ100": 1494,
      "Ġ136": 1495,
      "orme": 1496,
      "ende": 1497,
      "ilde": 1498,
      "Ġ121": 1499,
      "Ġ124": 1500,
      "ilfo": 1501,
      "Ġ39": 1502,
      "Ġ77": 1503,
      "Ġ147": 1504,
      "Ġ189": 1505,
      "Ġ103": 1506,
      "Ġ131": 1507,
      "Ġ91": 1508,
      "enho": 1509,
      "Ġ63": 1510,
      "Ġ73": 1511,
      "Ġ145": 1512,
      "Ġ84": 1513,
      "enmo": 1514,
      "umde": 1515,
      "Ġ35": 1516,
      "Ġ181": 1517,
      "Ġ44": 1518,
      "Ġ86": 1519,
      "Ġ112": 1520,
      "umga": 1521,
      "ĠFenaeth": 1522,
      "Ġ30": 1523,
      "Ġ68": 1524,
      "Ġ180": 1525,
      "Ġ40": 1526,
      "Ġ82": 1527,
      "Ġ138": 1528,
      "Ġ92": 1529,
      "Ġ93": 1530,
      "Ġ162": 1531,
      "Ġ165": 1532,
      "Ġ113": 1533,
      "Ġ116": 1534,
      "ormo": 1535,
      "orfo": 1536,
      "owmo": 1537,
      "owwi": 1538,
      "agat": 1539,
      "Ġ150": 1540,
      "Ġ71": 1541,
      "Ġ141": 1542,
      "Ġ182": 1543,
      "Ġ80": 1544,
      "Ġ53": 1545,
      "Ġ55": 1546,
      "Ġ134": 1547,
      "Ġ137": 1548,
      "Ġ164": 1549,
      "Ġ166": 1550,
      "umfo": 1551,
      "ashh": 1552,
      "ĠFenethe": 1553,
      "Ġ31": 1554,
      "Ġ37": 1555,
      "Ġ21": 1556,
      "Ġ26": 1557,
      "Ġ151": 1558,
      "Ġ156": 1559,
      "Ġ79": 1560,
      "Ġ104": 1561,
      "Ġ171": 1562,
      "Ġ96": 1563,
      "Ġ119": 1564,
      "Ġ123": 1565,
      "Ġ198": 1566,
      "enga": 1567,
      "ilwi": 1568,
      "ĠNoreneth": 1569,
      "Ġ22": 1570,
      "Ġ67": 1571,
      "Ġ149": 1572,
      "Ġ183": 1573,
      "Ġ185": 1574,
      "Ġ85": 1575,
      "Ġ52": 1576,
      "Ġ57": 1577,
      "Ġ101": 1578,
      "Ġ177": 1579,
      "Ġ90": 1580,
      "Ġ99": 1581,
      "owme": 1582,
      "ilme": 1583,
      "ĠNorethe": 1584,
      "Ġ154": 1585,
      "Ġ78": 1586,
      "Ġ140": 1587,
      "Ġ45": 1588,
      "Ġ47": 1589,
      "Ġ174": 1590,
      "Ġ110": 1591,
      "orwi": 1592,
      "ĠNorethor": 1593,
      "Ġ32": 1594,
      "Ġ65": 1595,
      "Ġ48": 1596,
      "Ġ51": 1597,
      "Ġ105": 1598,
      "Ġ173": 1599,
      "Ġ179": 1600,
      "Ġ161": 1601,
      "Ġ163": 1602,
      "Ġ196": 1603,
      "afel": 1604,
      "ahol": 1605,
      "ĠBelaeth": 1606,
      "ĠNoretho": 1607,
      "Ġ152": 1608,
      "Ġ158": 1609,
      "Ġ75": 1610,
      "Ġ59": 1611,
      "Ġ135": 1612,
      "Ġ175": 1613,
      "Ġ97": 1614,
      "umme": 1615,
      "enfo": 1616,
      "owde": 1617,
      "ashg": 1618,
      "ĠNorasha": 1619,
      "ĠFenoweth": 1620,
      "Ġ148": 1621,
      "Ġ58": 1622,
      "Ġ107": 1623,
      "Ġ190": 1624,
      "Ġ199": 1625,
      "ilga": 1626,
      "ĠNorasho": 1627,
      "ĠNorileth": 1628,
      "Ġ34": 1629,
      "Ġ27": 1630,
      "Ġ74": 1631,
      "Ġ87": 1632,
      "Ġ139": 1633,
      "Ġ115": 1634,
      "Ġ193": 1635,
      "umho": 1636,
      "ĠNorethet": 1637,
      "ĠFenumowwick": 1638,
      "ĠBeletha": 1639,
      "Ġ66": 1640,
      "Ġ153": 1641,
      "Ġ143": 1642,
      "Ġ146": 1643,
      "Ġ50": 1644,
      "Ġ56": 1645,
      "Ġ172": 1646,
      "Ġ98": 1647,
      "Ġ117": 1648,
      "amer": 1649,
      "ĠTaraeth": 1650,
      "ĠFenileth": 1651,
      "ĠBelumash": 1652,
      "ĠBelasho": 1653,
      "Ġ38": 1654,
      "Ġ157": 1655,
      "Ġ186": 1656,
      "Ġ41": 1657,
      "Ġ170": 1658,
      "Ġ169": 1659,
      "Ġ125": 1660,
      "Ġ126": 1661,
      "Ġ195": 1662,
      "ĠTarenilmoor": 1663,
      "ĠNorowethmere": 1664,
      "owho": 1665,
      "ĠNorashas": 1666,
      "ĠFenumash": 1667,
      "ĠFenumeth": 1668,
      "ĠTarileth": 1669,
      "Ġ64": 1670,
      "Ġ72": 1671,
      "Ġ142": 1672,
      "Ġ184": 1673,
      "Ġ46": 1674,
      "Ġ49": 1675,
      "Ġ83": 1676,
      "Ġ106": 1677,
      "Ġ132": 1678,
      "Ġ133": 1679,
      "Ġ167": 1680,
      "Ġ168": 1681,
      "ĠTarailford": 1682,
      "ĠNorowumwick": 1683,
      "ĠNorowowford": 1684,
      "afor": 1685,
      "owfe": 1686,
      "umwi": 1687,
      "ĠFenethet": 1688,
      "ĠNorashenden": 1689,
      "ĠFenaummoor": 1690,
      "ĠBelashil": 1691,
      "ĠNoroweth": 1692,
      "ĠNoretha": 1693,
      "ĠTarethor": 1694,
      "Ġ81": 1695,
      "Ġ109": 1696,
      "Ġ120": 1697,
      "Ġ192": 1698,
      "ĠFenorethden": 1699,
      "orde": 1700,
      "ĠNorashashholt": 1701,
      "ĠTarasha": 1702,
      "ĠTarasho": 1703,
      "ĠFenoreth": 1704,
      "ĠFenilash": 1705,
      "ĠNororagate": 1706,
      "ĠBelashet": 1707,
      "ĠBeloreth": 1708,
      "ĠTarumenmere": 1709,
      "ĠNorethum": 1710,
      "Ġ70": 1711,
      "Ġ42": 1712,
      "Ġ89": 1713,
      "Ġ127": 1714,
      "ĠNorumummoor": 1715,
      "ĠFenumorford": 1716,
      "ĠBelashowfell": 1717,
      "ĠBelethe": 1718,
      "ĠNorashet": 1719,
      "ĠTaraash": 1720,
      "ĠFenumethholt": 1721,
      "ĠBelumeth": 1722,
      "ĠNororeth": 1723,
      "ĠBelasha": 1724,
      "ĠTarumeth": 1725,
      "ĠTarumenholt": 1726,
      "ĠFenashow": 1727,
      "ĠNorethumwick": 1728,
      "Ġ36": 1729,
      "Ġ25": 1730,
      "Ġ194": 1731,
      "ĠTarorethgate": 1732,
      "ĠNorashethmoor": 1733,
      "ĠTarashethholt": 1734,
      "ĠBelenenwick": 1735,
      "ĠNoraummoor": 1736,
      "ĠFenaawick": 1737,
      "ĠNoroworford": 1738,
      "Ġ23": 1739,
      "Ġ24": 1740,
      "Ġ111": 1741,
      "ĠTaraormoor": 1742,
      "ĠTaraumgate": 1743,
      "ĠTarashummere": 1744,
      "ĠNorilumfell": 1745,
      "ĠNorailgate": 1746,
      "ĠTarenorholt": 1747,
      "ĠFenilethfell": 1748,
      "ĠNorenowden": 1749,
      "ĠTarethe": 1750,
      "ĠTaraorfell": 1751,
      "ĠTarenethfell": 1752,
      "ĠNorenash": 1753,
      "ĠNorenethholt": 1754,
      "ĠBeloweth": 1755,
      "ĠFenashil": 1756,
      "ĠFenowenmoor": 1757,
      "ĠNorethenwick": 1758,
      "ĠBelethor": 1759,
      "ĠTaretho": 1760,
      "ĠTarethowmere": 1761,
      "Ġ62": 1762,
      "Ġ130": 1763,
      "Ġ94": 1764,
      "Ġ197": 1765,
      "ĠTarailwick": 1766,
      "ĠTarashethgate": 1767,
      "ĠNororowmoor": 1768,
      "ĠNorenorwick": 1769,
      "ĠTarumenden": 1770,
      "ĠTarumethholt": 1771,
      "ĠBelaenwick": 1772,
      "ĠNorashe": 1773,
      "ĠNorashen": 1774,
      "ĠNorumilden": 1775,
      "ĠNorumenmere": 1776,
      "ĠTaraethmere": 1777,
      "ĠBelenash": 1778,
      "ĠNorilorholt": 1779,
      "ĠFenorash": 1780,
      "ĠFenaafell": 1781,
      "ĠNororash": 1782,
      "ĠBelowormere": 1783,
      "ĠTarililmoor": 1784,
      "ĠBelileth": 1785,
      "ĠBelilethwick": 1786,
      "ĠFenashet": 1787,
      "ĠFenetha": 1788,
      "ĠFenethilden": 1789,
      "Ġ187": 1790,
      "Ġ108": 1791,
      "Ġ95": 1792,
      "ĠTaraaford": 1793,
      "ĠTarashumford": 1794,
      "ĠNorililholt": 1795,
      "ĠTarenilholt": 1796,
      "ĠFenaethholt": 1797,
      "ĠNororamoor": 1798,
      "ĠNororumford": 1799,
      "ĠBelashethwick": 1800,
      "ĠBelaumgate": 1801,
      "ĠBelethowholt": 1802,
      "ĠNorethethford": 1803,
      "ĠTarailgate": 1804,
      "ĠTaraenholt": 1805,
      "ĠTarashowgate": 1806,
      "ĠBelenethford": 1807,
      "ĠFenorashgate": 1808,
      "ĠTarowumwick": 1809,
      "ĠBelashe": 1810,
      "ĠBelashowmoor": 1811,
      "ĠBelashormere": 1812,
      "ĠBelorashfell": 1813,
      "ĠFenashagate": 1814,
      "ĠFenenilgate": 1815,
      "ĠFenenengate": 1816,
      "ĠNorethas": 1817,
      "ĠTarethow": 1818,
      "Ġ160": 1819,
      "Ġ118": 1820,
      "Ġ122": 1821,
      "Ġ191": 1822,
      "enme": 1823,
      "ĠNorethethmere": 1824,
      "ĠNorashumgate": 1825,
      "ĠNorashethholt": 1826,
      "ĠTaraaden": 1827,
      "ĠTaraorden": 1828,
      "ĠFenumashden": 1829,
      "ĠBelenilford": 1830,
      "ĠBelenashmere": 1831,
      "ĠTarowumden": 1832,
      "ĠBelumowford": 1833,
      "ĠNorororwick": 1834,
      "ĠBelaumwick": 1835,
      "ĠBelililwick": 1836,
      "ĠNorethorholt": 1837,
      "ĠNorethilmoor": 1838,
      "orfe": 1839,
      "orho": 1840,
      "ĠNorashilholt": 1841,
      "ĠBelenowgate": 1842,
      "ĠBelenenden": 1843,
      "ĠBelenilwick": 1844,
      "ĠFenorum": 1845,
      "ĠFenilethford": 1846,
      "ĠBelumowwick": 1847,
      "ĠNorenenwick": 1848,
      "ĠNorenorholt": 1849,
      "ĠBelashum": 1850,
      "ĠBelowummere": 1851,
      "ĠTarilash": 1852,
      "ĠTarumenwick": 1853,
      "ĠFenashengate": 1854,
      "ĠBeletho": 1855,
      "ĠTarethagate": 1856,
      "Ġ28": 1857,
      "Ġ129": 1858,
      "ĠTaraenwick": 1859,
      "ĠTarashamoor": 1860,
      "ĠTarashowmere": 1861,
      "ĠFenaaden": 1862,
      "ĠFenilenmere": 1863,
      "ĠFenilamoor": 1864,
      "ĠFenilumden": 1865,
      "ĠBelumumfell": 1866,
      "ĠBelowilmere": 1867,
      "ĠNorowilden": 1868,
      "ĠTarumilgate": 1869,
      "ĠBelaenmere": 1870,
      "ĠBelililfell": 1871,
      "ĠFenashowden": 1872,
      "ĠFenashashfell": 1873,
      "ĠTarorashmoor": 1874,
      "ĠTaraenmoor": 1875,
      "ĠTarashaford": 1876,
      "ĠBeleneth": 1877,
      "ĠNorilowfell": 1878,
      "ĠNorilowgate": 1879,
      "ĠNorilenford": 1880,
      "ĠNorilumholt": 1881,
      "ĠNoraenden": 1882,
      "ĠTarenowford": 1883,
      "ĠTaroweth": 1884,
      "ĠTarowilgate": 1885,
      "ĠTarowilden": 1886,
      "ĠNororenmere": 1887,
      "ĠBelashumfell": 1888,
      "ĠBelowowfell": 1889,
      "ĠBelorenden": 1890,
      "ĠTarumumwick": 1891,
      "ĠBelailholt": 1892,
      "ĠBelaumden": 1893,
      "ĠBelaenfell": 1894,
      "ĠFenenethmoor": 1895,
      "ĠTaroreth": 1896,
      "ĠTarorashgate": 1897,
      "ĠTarorethfell": 1898,
      "ĠNorethamoor": 1899,
      "ĠBelethen": 1900,
      "ĠBelethowfell": 1901,
      "ĠTaretha": 1902,
      "Ġ128": 1903,
      "ĠNorumilgate": 1904,
      "ĠTaraafell": 1905,
      "ĠTarailfell": 1906,
      "ĠTarashethford": 1907,
      "ĠFenorenmere": 1908,
      "ĠFenororholt": 1909,
      "ĠNoraamere": 1910,
      "ĠTarenaden": 1911,
      "ĠTarenummoor": 1912,
      "ĠFenaowden": 1913,
      "ĠFenaashden": 1914,
      "ĠFenaethgate": 1915,
      "ĠBelowashmoor": 1916,
      "ĠBelaawick": 1917,
      "ĠFenenawick": 1918,
      "ĠFenenashwick": 1919,
      "ĠTarorethden": 1920,
      "ĠFenethenden": 1921,
      "ĠFenethilwick": 1922,
      "ĠFenethagate": 1923,
      "ĠNorumashmoor": 1924,
      "ĠTaraawick": 1925,
      "ĠFenumilden": 1926,
      "ĠFenumenholt": 1927,
      "ĠFenumumgate": 1928,
      "ĠTarashe": 1929,
      "ĠTarashum": 1930,
      "ĠTarashilmere": 1931,
      "ĠFenorilmoor": 1932,
      "ĠNoraenwick": 1933,
      "ĠTarowawick": 1934,
      "ĠFenaashgate": 1935,
      "ĠBelumummoor": 1936,
      "ĠNorenengate": 1937,
      "ĠNorenowford": 1938,
      "ĠBelashen": 1939,
      "ĠBelashow": 1940,
      "ĠTarilummere": 1941,
      "ĠBelaorholt": 1942,
      "ĠBelaaden": 1943,
      "ĠTarorilholt": 1944,
      "ĠTarorormoor": 1945,
      "ĠFenowumholt": 1946,
      "ĠNorethashmere": 1947,
      "ĠFenethengate": 1948,
      "ĠTarethas": 1949,
      "ĠTarethenford": 1950,
      "Ġ54": 1951,
      "ĠNorashowmere": 1952,
      "ĠTaraowgate": 1953,
      "ĠTarailmere": 1954,
      "ĠNoraethmere": 1955,
      "ĠTarowashford": 1956,
      "ĠTarowilfell": 1957,
      "ĠFenililholt": 1958,
      "ĠFenilamere": 1959,
      "ĠNororowgate": 1960,
      "ĠBelashashholt": 1961,
      "ĠBelowowford": 1962,
      "ĠBelorethmoor": 1963,
      "ĠBelaafell": 1964,
      "ĠBelaorfell": 1965,
      "ĠBelilumford": 1966,
      "ĠTarorenholt": 1967,
      "ĠTarorafell": 1968,
      "ĠTarorilmoor": 1969,
      "ĠFenoworford": 1970,
      "ĠBelethilford": 1971,
      "ĠFenethenholt": 1972,
      "ĠFenethilholt": 1973,
      "ĠTarethormoor": 1974,
      "ĠTarethethmoor": 1975,
      "ĠNorashil": 1976,
      "ĠNorashummere": 1977,
      "ĠNorashamoor": 1978,
      "ĠNorashorholt": 1979,
      "ĠNorashengate": 1980,
      "ĠTaraowmoor": 1981,
      "ĠTaraamere": 1982,
      "ĠFenumashgate": 1983,
      "ĠTarashow": 1984,
      "ĠTarashil": 1985,
      "ĠTarashenwick": 1986,
      "ĠNorilor": 1987,
      "ĠFenorowwick": 1988,
      "ĠNoraummere": 1989,
      "ĠNoraowden": 1990,
      "ĠTarenawick": 1991,
      "ĠTarowafell": 1992,
      "ĠFenaormoor": 1993,
      "ĠFenaorfell": 1994,
      "ĠFenaenfell": 1995,
      "ĠFenilummere": 1996,
      "ĠFenilenford": 1997,
      "ĠFenilowmere": 1998,
      "ĠFenilashfell": 1999,
      "ĠFenilaholt": 2000,
      "ĠBelumenden": 2001,
      "ĠBelumaford": 2002,
      "ĠNororowwick": 2003,
      "ĠNororilmoor": 2004,
      "ĠNororethholt": 2005,
      "ĠNorenenholt": 2006,
      "ĠNorenaholt": 2007,
      "ĠBelorum": 2008,
      "ĠBelorengate": 2009,
      "ĠTarilowmere": 2010,
      "ĠTarilashfell": 2011,
      "ĠTarumowfell": 2012,
      "ĠBelaashwick": 2013,
      "ĠFenashummere": 2014,
      "ĠFenashamoor": 2015,
      "ĠTarorumfell": 2016,
      "ĠTarororwick": 2017,
      "ĠNorethaden": 2018,
      "ĠNorethashfell": 2019,
      "ĠBelethummere": 2020,
      "ĠTarethil": 2021,
      "ĠTarethenfell": 2022,
      "Ġ176": 2023,
      "Ġ114": 2024,
      "ĠNorashumford": 2025,
      "ĠNorashenmoor": 2026,
      "ĠNorumagate": 2027,
      "ĠFenumilgate": 2028,
      "ĠFenumormere": 2029,
      "ĠFenumashmere": 2030,
      "ĠTarashumden": 2031,
      "ĠBelenowden": 2032,
      "ĠBelenenfell": 2033,
      "ĠNorilenwick": 2034,
      "ĠNorilethmoor": 2035,
      "ĠFenorowmere": 2036,
      "ĠNorailford": 2037,
      "ĠNoraengate": 2038,
      "ĠNoraethfell": 2039,
      "ĠTarenumgate": 2040,
      "ĠTarenethwick": 2041,
      "ĠTarowilwick": 2042,
      "ĠTarowashmoor": 2043,
      "ĠBelumowmoor": 2044,
      "ĠNorenowholt": 2045,
      "ĠNorenorford": 2046,
      "ĠBelashawick": 2047,
      "ĠBelashagate": 2048,
      "ĠBelashashmere": 2049,
      "ĠBelowethford": 2050,
      "ĠBelorenford": 2051,
      "ĠNorowethden": 2052,
      "ĠTarumowgate": 2053,
      "ĠTarumowwick": 2054,
      "ĠTarumumholt": 2055,
      "ĠBelaethfell": 2056,
      "ĠFenenumfell": 2057,
      "ĠFenenenholt": 2058,
      "ĠFenenormoor": 2059,
      "ĠFenowenford": 2060,
      "ĠNorethilgate": 2061,
      "ĠBelethashholt": 2062,
      "ĠFenethafell": 2063,
      "ĠBelethethholt": 2064,
      "ilho": 2065,
      "ĠNorashumfell": 2066,
      "ĠNorashowden": 2067,
      "ĠTaraumford": 2068,
      "ĠTaraorford": 2069,
      "ĠFenumowholt": 2070,
      "ĠFenumashfell": 2071,
      "ĠFenumethfell": 2072,
      "ĠTarashorfell": 2073,
      "ĠTarashethwick": 2074,
      "ĠTarashet": 2075,
      "ĠBelenashholt": 2076,
      "ĠBelenorden": 2077,
      "ĠNorilas": 2078,
      "ĠFenorethwick": 2079,
      "ĠNoraash": 2080,
      "ĠNoraenford": 2081,
      "ĠNoraethford": 2082,
      "ĠTarenash": 2083,
      "ĠTarenowwick": 2084,
      "ĠTarenethholt": 2085,
      "ĠFenilumfell": 2086,
      "ĠFenilowholt": 2087,
      "ĠFenililford": 2088,
      "ĠFenilafell": 2089,
      "ĠBelumorford": 2090,
      "ĠNororethden": 2091,
      "ĠBelashenford": 2092,
      "ĠBelashumden": 2093,
      "ĠBelowowden": 2094,
      "ĠBelorilford": 2095,
      "ĠNorowilholt": 2096,
      "ĠNorowowden": 2097,
      "ĠTarililwick": 2098,
      "ĠTarilethmere": 2099,
      "ĠTarumumfell": 2100,
      "ĠTarumashden": 2101,
      "ĠTarumethwick": 2102,
      "ĠBelailden": 2103,
      "ĠBelilet": 2104,
      "ĠFenasho": 2105,
      "ĠFenashashford": 2106,
      "ĠTarorashholt": 2107,
      "ĠFenowowgate": 2108,
      "ĠNorethumgate": 2109,
      "ĠBelethenfell": 2110,
      "ĠBelethorden": 2111,
      "ĠFenetho": 2112,
      "ĠFenethowfell": 2113,
      "ĠTarethum": 2114,
      "ĠTarethowholt": 2115,
      "ĠTarethenmoor": 2116,
      "ĠNorashenwick": 2117,
      "ĠNorashumden": 2118,
      "ĠTarailden": 2119,
      "ĠTaraashden": 2120,
      "ĠFenumowden": 2121,
      "ĠBelenaden": 2122,
      "ĠBelenashgate": 2123,
      "ĠBelenorwick": 2124,
      "ĠNorilormoor": 2125,
      "ĠNorililmoor": 2126,
      "ĠTarenowmere": 2127,
      "ĠTarenorgate": 2128,
      "ĠTarowethmere": 2129,
      "ĠFenaashford": 2130,
      "ĠFenaethfell": 2131,
      "ĠFenililgate": 2132,
      "ĠFenilorden": 2133,
      "ĠNorenashgate": 2134,
      "ĠBelashormoor": 2135,
      "ĠBelashaholt": 2136,
      "ĠBelowormoor": 2137,
      "ĠBelowilford": 2138,
      "ĠBelowengate": 2139,
      "ĠBelowilfell": 2140,
      "ĠBelorilgate": 2141,
      "ĠBelorowholt": 2142,
      "ĠBelaumfell": 2143,
      "ĠBelaowwick": 2144,
      "ĠBelaenholt": 2145,
      "ĠBelilowholt": 2146,
      "ĠBelilashden": 2147,
      "ĠFenashaholt": 2148,
      "ĠFenashilmere": 2149,
      "ĠFenenethden": 2150,
      "ĠTarorowden": 2151,
      "ĠFenowowfell": 2152,
      "ĠBelethamoor": 2153,
      "ĠNorashummoor": 2154,
      "ĠNorumowfell": 2155,
      "ĠNorumowmere": 2156,
      "ĠNorumamere": 2157,
      "ĠFenumowfell": 2158,
      "ĠFenumormoor": 2159,
      "ĠFenumowmoor": 2160,
      "ĠTarashenholt": 2161,
      "ĠTarashashgate": 2162,
      "ĠBelenowwick": 2163,
      "ĠBelenenholt": 2164,
      "ĠBelenafell": 2165,
      "ĠFenorowgate": 2166,
      "ĠNorailmere": 2167,
      "ĠTaroworwick": 2168,
      "ĠTarowilmere": 2169,
      "ĠFenaumfell": 2170,
      "ĠFenaenmere": 2171,
      "ĠFenaumholt": 2172,
      "ĠFeniladen": 2173,
      "ĠBelumenmere": 2174,
      "ĠBelumethmoor": 2175,
      "ĠNororashmoor": 2176,
      "ĠNorororgate": 2177,
      "ĠBelashor": 2178,
      "ĠBelorethford": 2179,
      "ĠTarilor": 2180,
      "ĠTarilowmoor": 2181,
      "ĠTarumumden": 2182,
      "ĠBelaowfell": 2183,
      "ĠBelailwick": 2184,
      "ĠBelilorgate": 2185,
      "ĠFenashilmoor": 2186,
      "ĠFenenowmere": 2187,
      "ĠFenowashden": 2188,
      "ĠFenowengate": 2189,
      "ĠNorethummere": 2190,
      "ĠBelethaholt": 2191,
      "ĠFenethamoor": 2192,
      "ĠFenethumford": 2193,
      "ĠNorashawick": 2194,
      "ĠNorumamoor": 2195,
      "ĠNorumilmere": 2196,
      "ĠTaraummere": 2197,
      "ĠTarailmoor": 2198,
      "ĠTarashowmoor": 2199,
      "ĠBelenashford": 2200,
      "ĠBelenethwick": 2201,
      "ĠFenorummere": 2202,
      "ĠFenorowmoor": 2203,
      "ĠFenorormere": 2204,
      "ĠFenorashholt": 2205,
      "ĠFenorashwick": 2206,
      "ĠNoraawick": 2207,
      "ĠNoraaden": 2208,
      "ĠNoraorden": 2209,
      "ĠTarenashford": 2210,
      "ĠTarowilford": 2211,
      "ĠTarowashfell": 2212,
      "ĠTarowethmoor": 2213,
      "ĠFenaumford": 2214,
      "ĠFenaashmoor": 2215,
      "ĠFenilashmere": 2216,
      "ĠFenilethgate": 2217,
      "ĠBelumamoor": 2218,
      "ĠNorenowfell": 2219,
      "ĠNorenormere": 2220,
      "ĠBelowowgate": 2221,
      "ĠBelowafell": 2222,
      "ĠBelorenmere": 2223,
      "ĠBelororholt": 2224,
      "ĠBelorumden": 2225,
      "ĠNorowenmoor": 2226,
      "ĠTarumummere": 2227,
      "ĠTarumorholt": 2228,
      "ĠTarumowmere": 2229,
      "ĠBelilenwick": 2230,
      "ĠBelilashfell": 2231,
      "ĠBelilumholt": 2232,
      "ĠBelilethford": 2233,
      "ĠFenenumford": 2234,
      "ĠFenenashmere": 2235,
      "ĠFenowenmere": 2236,
      "ĠFenowamere": 2237,
      "ĠBelethorholt": 2238,
      "ĠBelethenholt": 2239,
      "ĠBelethilholt": 2240,
      "ĠBelethowford": 2241,
      "ĠFenethumgate": 2242,
      "ĠTarethowfell": 2243,
      "ĠNorashilgate": 2244,
      "ĠNorashowfell": 2245,
      "ĠNorashashwick": 2246,
      "ĠNorumumden": 2247,
      "ĠNorumethmoor": 2248,
      "ĠTaraowholt": 2249,
      "ĠTaraashgate": 2250,
      "ĠTaraethford": 2251,
      "ĠTarashilden": 2252,
      "ĠTarashorford": 2253,
      "ĠBelenilgate": 2254,
      "ĠFenoraholt": 2255,
      "ĠTarenowgate": 2256,
      "ĠTarenashholt": 2257,
      "ĠTarenumwick": 2258,
      "ĠTarowowfell": 2259,
      "ĠTarowashgate": 2260,
      "ĠTaroworgate": 2261,
      "ĠFenaormere": 2262,
      "ĠFenaowford": 2263,
      "ĠBelumowgate": 2264,
      "ĠBelumilford": 2265,
      "ĠNororamere": 2266,
      "ĠNorenowmere": 2267,
      "ĠNorenilwick": 2268,
      "ĠBelowamoor": 2269,
      "ĠBelowenford": 2270,
      "ĠBelowagate": 2271,
      "ĠBeloworgate": 2272,
      "ĠBelowumden": 2273,
      "ĠBelorashden": 2274,
      "ĠBelorumwick": 2275,
      "ĠNorowowfell": 2276,
      "ĠNoroworwick": 2277,
      "ĠNorowethfell": 2278,
      "ĠTarumilwick": 2279,
      "ĠBelilowfell": 2280,
      "ĠFenashowfell": 2281,
      "ĠFenashowford": 2282,
      "ĠFenenash": 2283,
      "ĠFenenummere": 2284,
      "ĠTarorash": 2285,
      "ĠTarorashden": 2286,
      "ĠTarorengate": 2287,
      "ĠFenowowholt": 2288,
      "ĠFenoworgate": 2289,
      "ĠNorethashden": 2290,
      "ĠNorethashwick": 2291,
      "ĠBelethas": 2292,
      "ĠBelethil": 2293,
      "ĠBelethumfell": 2294,
      "ĠBelethormoor": 2295,
      "ĠFenethilmoor": 2296,
      "ĠTarethummere": 2297,
      "ĠTarethormere": 2298,
      "ĠBelethethgate": 2299,
      "ĠNorashilmere": 2300,
      "ĠNorashethford": 2301,
      "ĠNorumaden": 2302,
      "ĠNorumafell": 2303,
      "ĠNorumashfell": 2304,
      "ĠNorumashden": 2305,
      "ĠNorumumholt": 2306,
      "ĠNorumethwick": 2307,
      "ĠTaraenmere": 2308,
      "ĠTaraenden": 2309,
      "ĠTaraumwick": 2310,
      "ĠFenumowmere": 2311,
      "ĠFenumenfell": 2312,
      "ĠTarashengate": 2313,
      "ĠBelenorford": 2314,
      "ĠNorilashmoor": 2315,
      "ĠNorilashden": 2316,
      "ĠNorilummoor": 2317,
      "ĠNorilorden": 2318,
      "ĠFenoraden": 2319,
      "ĠNorailholt": 2320,
      "ĠNoraowmere": 2321,
      "ĠTarenafell": 2322,
      "ĠTarowenwick": 2323,
      "ĠTarowowholt": 2324,
      "ĠTarowilholt": 2325,
      "ĠTarowowmere": 2326,
      "ĠTarowethwick": 2327,
      "ĠFenaamoor": 2328,
      "ĠBelumummere": 2329,
      "ĠBelumafell": 2330,
      "ĠBelumashgate": 2331,
      "ĠBelumumholt": 2332,
      "ĠBelumamere": 2333,
      "ĠNororowmere": 2334,
      "ĠNororashwick": 2335,
      "ĠBelowumgate": 2336,
      "ĠBeloworden": 2337,
      "ĠBelowethfell": 2338,
      "ĠBelorilwick": 2339,
      "ĠNorowilgate": 2340,
      "ĠNorowawick": 2341,
      "ĠNorowowholt": 2342,
      "ĠNorowilford": 2343,
      "ĠTarilumfell": 2344,
      "ĠTarilorden": 2345,
      "ĠTarumaford": 2346,
      "ĠBelilaford": 2347,
      "ĠFenenafell": 2348,
      "ĠFenenilfell": 2349,
      "ĠTarororgate": 2350,
      "ĠFenowumgate": 2351,
      "ĠFenowashford": 2352,
      "ĠNorethowwick": 2353,
      "ĠNorethumholt": 2354,
      "ĠBelethenford": 2355,
      "ĠFenethashmoor": 2356,
      "ĠFenethaholt": 2357,
      "ĠTarethowgate": 2358,
      "ĠTarethowwick": 2359,
      "ĠTarethet": 2360,
      "ĠNorashilwick": 2361,
      "ĠNorashorwick": 2362,
      "ĠNorashorgate": 2363,
      "ĠNorumash": 2364,
      "ĠNorumowwick": 2365,
      "ĠNorumenden": 2366,
      "ĠNorumilford": 2367,
      "ĠNorumorwick": 2368,
      "ĠNorumowford": 2369,
      "ĠNorumaford": 2370,
      "ĠTaraethgate": 2371,
      "ĠFenumenford": 2372,
      "ĠFenumafell": 2373,
      "ĠFenumumholt": 2374,
      "ĠFenumorfell": 2375,
      "ĠTarashas": 2376,
      "ĠTarashorholt": 2377,
      "ĠTarashilholt": 2378,
      "ĠTarashethden": 2379,
      "ĠBelenumfell": 2380,
      "ĠBelenowmere": 2381,
      "ĠBelenagate": 2382,
      "ĠFenorowholt": 2383,
      "ĠNoraormere": 2384,
      "ĠTarenowden": 2385,
      "ĠTarenumholt": 2386,
      "ĠTarenilmere": 2387,
      "ĠTarenashwick": 2388,
      "ĠTarowil": 2389,
      "ĠTarowowgate": 2390,
      "ĠTarowashmere": 2391,
      "ĠFenaash": 2392,
      "ĠFenilormoor": 2393,
      "ĠBelumor": 2394,
      "ĠBelumilden": 2395,
      "ĠBelumumford": 2396,
      "ĠBelumagate": 2397,
      "ĠBelumethford": 2398,
      "ĠNororilden": 2399,
      "ĠNororaden": 2400,
      "ĠNororenford": 2401,
      "ĠNororowden": 2402,
      "ĠNorenilden": 2403,
      "ĠNorenenford": 2404,
      "ĠBelashamoor": 2405,
      "ĠBelashenholt": 2406,
      "ĠBelashashfell": 2407,
      "ĠBelowowmoor": 2408,
      "ĠBelowashholt": 2409,
      "ĠBelorormoor": 2410,
      "ĠBelororford": 2411,
      "ĠTarilamoor": 2412,
      "ĠTarilowden": 2413,
      "ĠTarumowholt": 2414,
      "ĠTarumaholt": 2415,
      "ĠBelaenmoor": 2416,
      "ĠBelaethholt": 2417,
      "ĠBelilil": 2418,
      "ĠBelilawick": 2419,
      "ĠBelilashford": 2420,
      "ĠFenasha": 2421,
      "ĠFenashas": 2422,
      "ĠFenashilden": 2423,
      "ĠFeneneth": 2424,
      "ĠFenenilwick": 2425,
      "ĠTarorumford": 2426,
      "ĠFenowafell": 2427,
      "ĠFenowashmere": 2428,
      "ĠBelethashden": 2429,
      "ĠFenethum": 2430,
      "ĠFenethenmere": 2431,
      "ĠFenethashgate": 2432,
      "ĠFenethashford": 2433,
      "ĠTarethen": 2434,
      "ĠNorethethgate": 2435,
      "ĠNorashormere": 2436,
      "ĠNorumorholt": 2437,
      "ĠNorumormoor": 2438,
      "ĠNorumenfell": 2439,
      "ĠFenumowgate": 2440,
      "ĠFenumashford": 2441,
      "ĠTarashormere": 2442,
      "ĠBelenumwick": 2443,
      "ĠNorilummere": 2444,
      "ĠNorilumgate": 2445,
      "ĠNorilorwick": 2446,
      "ĠFenorilgate": 2447,
      "ĠFenorowden": 2448,
      "ĠFenorethgate": 2449,
      "ĠNoraowwick": 2450,
      "ĠNoraumwick": 2451,
      "ĠNorailfell": 2452,
      "ĠTarenormere": 2453,
      "ĠTarenashgate": 2454,
      "ĠTarenorfell": 2455,
      "ĠFenaorgate": 2456,
      "ĠFenaorden": 2457,
      "ĠFenilumford": 2458,
      "ĠBelumilmoor": 2459,
      "ĠBelumaholt": 2460,
      "ĠBelumenfell": 2461,
      "ĠNororowfell": 2462,
      "ĠNororaholt": 2463,
      "ĠNororilmere": 2464,
      "ĠNororethfell": 2465,
      "ĠNororethgate": 2466,
      "ĠNorenaden": 2467,
      "ĠNorenowwick": 2468,
      "ĠNorenashford": 2469,
      "ĠBelashilgate": 2470,
      "ĠBelashumwick": 2471,
      "ĠBelowenmere": 2472,
      "ĠBelorenwick": 2473,
      "ĠBelorormere": 2474,
      "ĠBelororden": 2475,
      "ĠBelorethwick": 2476,
      "ĠNorowummere": 2477,
      "ĠNorowamoor": 2478,
      "ĠNorowilwick": 2479,
      "ĠTarilorfell": 2480,
      "ĠTarilenfell": 2481,
      "ĠTarilethford": 2482,
      "ĠTarumamoor": 2483,
      "ĠTarumenford": 2484,
      "ĠBelaamoor": 2485,
      "ĠBelilenford": 2486,
      "ĠBelilenden": 2487,
      "ĠFenashenfell": 2488,
      "ĠFenenenmere": 2489,
      "ĠFenenorford": 2490,
      "ĠTarorawick": 2491,
      "ĠTarorilfell": 2492,
      "ĠFenowilfell": 2493,
      "ĠFenoworfell": 2494,
      "ĠFenowethwick": 2495,
      "ĠNorethormere": 2496,
      "ĠNorethorwick": 2497,
      "ĠNorethashford": 2498,
      "ĠNorethorgate": 2499,
      "ĠBelethumford": 2500,
      "ĠBelethafell": 2501,
      "ĠFenethilfell": 2502,
      "ĠTarethilden": 2503,
      "ĠTarethenwick": 2504,
      "ĠTarethorden": 2505,
      "ĠNorethethwick": 2506,
      "awic": 2507,
      "ĠNorashow": 2508,
      "ĠNorashum": 2509,
      "ĠNorashagate": 2510,
      "ĠNorashethfell": 2511,
      "ĠNorashethgate": 2512,
      "ĠNorumor": 2513,
      "ĠNorumas": 2514,
      "ĠNorumowden": 2515,
      "ĠNorumorfell": 2516,
      "ĠTaraethwick": 2517,
      "ĠFenumumfell": 2518,
      "ĠFenumorwick": 2519,
      "ĠFenumenmoor": 2520,
      "ĠFenumethden": 2521,
      "ĠTarashaden": 2522,
      "ĠBelenilden": 2523,
      "ĠBelenaholt": 2524,
      "ĠNorilow": 2525,
      "ĠNorililgate": 2526,
      "ĠNorilorgate": 2527,
      "ĠNorilowford": 2528,
      "ĠFenorashmere": 2529,
      "ĠFenorashford": 2530,
      "ĠFenorilfell": 2531,
      "ĠNorailmoor": 2532,
      "ĠTarenummere": 2533,
      "ĠTarenenwick": 2534,
      "ĠTarenagate": 2535,
      "ĠTarowumgate": 2536,
      "ĠTarowormere": 2537,
      "ĠTarowethfell": 2538,
      "ĠFenailford": 2539,
      "ĠFenaashfell": 2540,
      "ĠFenilagate": 2541,
      "ĠBelumow": 2542,
      "ĠBelumorholt": 2543,
      "ĠNororashgate": 2544,
      "ĠNororummoor": 2545,
      "ĠNorenowgate": 2546,
      "ĠNorenormoor": 2547,
      "ĠNorenumwick": 2548,
      "ĠBelashas": 2549,
      "ĠBelashowden": 2550,
      "ĠBelashashden": 2551,
      "ĠBelashilfell": 2552,
      "ĠBelowumfell": 2553,
      "ĠBelowowwick": 2554,
      "ĠBelowowholt": 2555,
      "ĠBelowenfell": 2556,
      "ĠBelorenmoor": 2557,
      "ĠNorowenmere": 2558,
      "ĠNoroworfell": 2559,
      "ĠTarilenden": 2560,
      "ĠTarumawick": 2561,
      "ĠTarumashmoor": 2562,
      "ĠBelaowholt": 2563,
      "ĠBelaashmoor": 2564,
      "ĠBelaorgate": 2565,
      "ĠBelaethford": 2566,
      "ĠFenashumford": 2567,
      "ĠFenashumholt": 2568,
      "ĠFenashethmere": 2569,
      "ĠFenenow": 2570,
      "ĠFenenethmere": 2571,
      "ĠFenenethford": 2572,
      "ĠFenowilford": 2573,
      "ĠNorethilden": 2574,
      "ĠNorethilholt": 2575,
      "ĠBelethow": 2576,
      "ĠBelethashford": 2577,
      "ĠBelethorgate": 2578,
      "ĠFenethas": 2579,
      "ĠFenethowwick": 2580,
      "ĠFenethorwick": 2581,
      "ĠTarethumfell": 2582,
      "ĠTarethenholt": 2583,
      "ĠTarethowmoor": 2584,
      "ĠTarethowden": 2585,
      "ĠTarethumden": 2586,
      "ĠNorethethfell": 2587,
      "ĠFenethethmoor": 2588,
      "ĠNorashumholt": 2589,
      "ĠNorumawick": 2590,
      "ĠNorumenholt": 2591,
      "ĠNorumumford": 2592,
      "ĠNorumethmere": 2593,
      "ĠFenumaholt": 2594,
      "ĠTarashenmere": 2595,
      "ĠTarashenden": 2596,
      "ĠTarashilmoor": 2597,
      "ĠBelenashmoor": 2598,
      "ĠBelenethmere": 2599,
      "ĠNorilagate": 2600,
      "ĠNorilashmere": 2601,
      "ĠNorilumden": 2602,
      "ĠFenorilholt": 2603,
      "ĠFenorormoor": 2604,
      "ĠFenorumgate": 2605,
      "ĠFenorethmoor": 2606,
      "ĠNoraashmere": 2607,
      "ĠNoraashwick": 2608,
      "ĠTarenamere": 2609,
      "ĠTarenethford": 2610,
      "ĠTarowashholt": 2611,
      "ĠTarowethden": 2612,
      "ĠFenailgate": 2613,
      "ĠFenaowmoor": 2614,
      "ĠFenaaholt": 2615,
      "ĠFenaenmoor": 2616,
      "ĠBelumumgate": 2617,
      "ĠBelumashden": 2618,
      "ĠBelumenmoor": 2619,
      "ĠNororengate": 2620,
      "ĠNororumwick": 2621,
      "ĠNorororden": 2622,
      "ĠNorenumfell": 2623,
      "ĠNorenaford": 2624,
      "ĠNorenethmere": 2625,
      "ĠBelashamere": 2626,
      "ĠBelowilden": 2627,
      "ĠBelowashfell": 2628,
      "ĠBeloraden": 2629,
      "ĠBeloraholt": 2630,
      "ĠBelorashford": 2631,
      "ĠBelorilmere": 2632,
      "ĠBeloraford": 2633,
      "ĠNorowowwick": 2634,
      "ĠNorowafell": 2635,
      "ĠNorowaholt": 2636,
      "ĠTarilorholt": 2637,
      "ĠTarilashden": 2638,
      "ĠTarilethwick": 2639,
      "ĠTarilethmoor": 2640,
      "ĠTarumowden": 2641,
      "ĠTarumashgate": 2642,
      "ĠBelaowden": 2643,
      "ĠBelaengate": 2644,
      "ĠBelilenmoor": 2645,
      "ĠFenashumfell": 2646,
      "ĠFenashowwick": 2647,
      "ĠFenashenden": 2648,
      "ĠFenashormere": 2649,
      "ĠFenashorfell": 2650,
      "ĠFenenowgate": 2651,
      "ĠFenenagate": 2652,
      "ĠFenenethholt": 2653,
      "ĠTaroragate": 2654,
      "ĠTaroramere": 2655,
      "ĠFenowilmere": 2656,
      "ĠFenowethmere": 2657,
      "ĠNorethowgate": 2658,
      "ĠNorethashgate": 2659,
      "ĠNorethaford": 2660,
      "ĠBelethowmoor": 2661,
      "ĠBelethilfell": 2662,
      "ĠTarethorholt": 2663,
      "ĠTarethaden": 2664,
      "ĠTarethethmere": 2665,
      "ĠNorashu": 2666,
      "ĠNorashowgate": 2667,
      "ĠNorashashgate": 2668,
      "ĠNorashorfell": 2669,
      "ĠNorumen": 2670,
      "ĠNorumum": 2671,
      "ĠTaraumholt": 2672,
      "ĠFenumummere": 2673,
      "ĠFenumorholt": 2674,
      "ĠFenumorden": 2675,
      "ĠTarashawick": 2676,
      "ĠTarashamere": 2677,
      "ĠTarashowford": 2678,
      "ĠBelenor": 2679,
      "ĠBelenenmere": 2680,
      "ĠNorilowholt": 2681,
      "ĠNorililfell": 2682,
      "ĠFenorenden": 2683,
      "ĠFenorethfell": 2684,
      "ĠNoraenholt": 2685,
      "ĠNoraethholt": 2686,
      "ĠNoraethmoor": 2687,
      "ĠTarowowmoor": 2688,
      "ĠTarowashwick": 2689,
      "ĠFenailden": 2690,
      "ĠFenaenden": 2691,
      "ĠFenaengate": 2692,
      "ĠFenaashmere": 2693,
      "ĠFenaashwick": 2694,
      "ĠFenilumgate": 2695,
      "ĠFenilashholt": 2696,
      "ĠBelumowmere": 2697,
      "ĠBelumashfell": 2698,
      "ĠBelumumwick": 2699,
      "ĠNororowholt": 2700,
      "ĠNororashholt": 2701,
      "ĠNororumholt": 2702,
      "ĠNorenashwick": 2703,
      "ĠBelowow": 2704,
      "ĠBelowumholt": 2705,
      "ĠBelowamere": 2706,
      "ĠBelowaford": 2707,
      "ĠBelorumfell": 2708,
      "ĠBelorowwick": 2709,
      "ĠNorowas": 2710,
      "ĠNorowowmere": 2711,
      "ĠNorowashfell": 2712,
      "ĠNorowashwick": 2713,
      "ĠTarilowfell": 2714,
      "ĠTarilenmere": 2715,
      "ĠTarilagate": 2716,
      "ĠTarilowford": 2717,
      "ĠTarilashwick": 2718,
      "ĠTarumamere": 2719,
      "ĠBelilum": 2720,
      "ĠBelilummere": 2721,
      "ĠBelilorwick": 2722,
      "ĠBelilethgate": 2723,
      "ĠFenashen": 2724,
      "ĠTarorashwick": 2725,
      "ĠTaroraford": 2726,
      "ĠTarorethmere": 2727,
      "ĠTarorethmoor": 2728,
      "ĠFenowumford": 2729,
      "ĠFenowaford": 2730,
      "ĠNorethow": 2731,
      "ĠNorethenford": 2732,
      "ĠNorethafell": 2733,
      "ĠBelethamere": 2734,
      "ĠFenethen": 2735,
      "ĠFenethumfell": 2736,
      "ĠFenethashmere": 2737,
      "ĠFenethorfell": 2738,
      "ĠTarethethfell": 2739,
      "ĠNorashowmoor": 2740,
      "ĠNorashashfell": 2741,
      "ĠNorashilmoor": 2742,
      "ĠNorumilwick": 2743,
      "ĠNorumaholt": 2744,
      "ĠNorumorden": 2745,
      "ĠNorumethfell": 2746,
      "ĠTaraamoor": 2747,
      "ĠTaraashmoor": 2748,
      "ĠTaraashholt": 2749,
      "ĠFenumashmoor": 2750,
      "ĠFenumengate": 2751,
      "ĠFenumashwick": 2752,
      "ĠFenumethmere": 2753,
      "ĠTarashilgate": 2754,
      "ĠTarashowholt": 2755,
      "ĠBelenethholt": 2756,
      "ĠNorilenholt": 2757,
      "ĠNorilowmere": 2758,
      "ĠNorililwick": 2759,
      "ĠFenorumford": 2760,
      "ĠFenorilford": 2761,
      "ĠNoraowholt": 2762,
      "ĠNoraethwick": 2763,
      "ĠTarenowfell": 2764,
      "ĠTarenamoor": 2765,
      "ĠTarenenmoor": 2766,
      "ĠTarenorden": 2767,
      "ĠTarenethmoor": 2768,
      "ĠFenaowmere": 2769,
      "ĠFenilowwick": 2770,
      "ĠBelumenholt": 2771,
      "ĠBelumashmoor": 2772,
      "ĠBelumethmere": 2773,
      "ĠNororenden": 2774,
      "ĠNorororford": 2775,
      "ĠNororenfell": 2776,
      "ĠNorenumden": 2777,
      "ĠNorenilfell": 2778,
      "ĠNorenethden": 2779,
      "ĠBelowenholt": 2780,
      "ĠBelowilwick": 2781,
      "ĠBelorowmoor": 2782,
      "ĠBelorumholt": 2783,
      "ĠNorowumfell": 2784,
      "ĠNorowaden": 2785,
      "ĠNorowenden": 2786,
      "ĠNorowagate": 2787,
      "ĠNorowashmere": 2788,
      "ĠTarililden": 2789,
      "ĠTariladen": 2790,
      "ĠTarilumford": 2791,
      "ĠTarilorwick": 2792,
      "ĠTarumumford": 2793,
      "ĠTarumowmoor": 2794,
      "ĠTarumashmere": 2795,
      "ĠBelailford": 2796,
      "ĠBelaashgate": 2797,
      "ĠBelaagate": 2798,
      "ĠBelilumgate": 2799,
      "ĠFenashilgate": 2800,
      "ĠFenashenmere": 2801,
      "ĠFenashawick": 2802,
      "ĠFenashenwick": 2803,
      "ĠFenashumden": 2804,
      "ĠFenashenmoor": 2805,
      "ĠFenashethford": 2806,
      "ĠFenenilholt": 2807,
      "ĠFenenashgate": 2808,
      "ĠFenenaholt": 2809,
      "ĠTarorowfell": 2810,
      "ĠTarorenford": 2811,
      "ĠTarorowwick": 2812,
      "ĠTarororfell": 2813,
      "ĠTarororden": 2814,
      "ĠFenowawick": 2815,
      "ĠFenowilwick": 2816,
      "ĠFenowashmoor": 2817,
      "ĠNorethowholt": 2818,
      "ĠBelethenmere": 2819,
      "ĠBelethowmere": 2820,
      "ĠBelethorford": 2821,
      "ĠBelethorfell": 2822,
      "ĠFenethorgate": 2823,
      "ĠFenethamere": 2824,
      "ĠTarethilgate": 2825,
      "ĠTarethashholt": 2826,
      "ĠTarethamere": 2827,
      "ĠTarethilmere": 2828,
      "Taretheth": 2829,
      "ĠNorashaholt": 2830,
      "ĠNorumumfell": 2831,
      "ĠNorumashford": 2832,
      "ĠTaraorholt": 2833,
      "ĠTarashor": 2834,
      "ĠTarashen": 2835,
      "ĠTarashumgate": 2836,
      "ĠTarashilford": 2837,
      "ĠTarashumholt": 2838,
      "ĠTarashenfell": 2839,
      "ĠTarashethmoor": 2840,
      "ĠBelenilmoor": 2841,
      "ĠBelenaford": 2842,
      "ĠNoriladen": 2843,
      "ĠFenorawick": 2844,
      "ĠFenorashden": 2845,
      "ĠFenorengate": 2846,
      "ĠNoraenmere": 2847,
      "ĠNoraashholt": 2848,
      "ĠNoraenfell": 2849,
      "ĠTarenilfell": 2850,
      "ĠTarowum": 2851,
      "ĠTarowumfell": 2852,
      "ĠTaroworden": 2853,
      "ĠFenaowwick": 2854,
      "ĠFenaamere": 2855,
      "ĠFenilorford": 2856,
      "ĠFenilethmere": 2857,
      "ĠBelumawick": 2858,
      "ĠBelumenford": 2859,
      "ĠBelumormere": 2860,
      "ĠBelumorfell": 2861,
      "ĠNororen": 2862,
      "ĠNororormere": 2863,
      "ĠNororenmoor": 2864,
      "ĠNorenilholt": 2865,
      "ĠNorenumgate": 2866,
      "ĠNorenashholt": 2867,
      "ĠBelashilholt": 2868,
      "ĠBelashowmere": 2869,
      "ĠBelowash": 2870,
      "ĠBelowenwick": 2871,
      "ĠBelowilholt": 2872,
      "ĠBeloworwick": 2873,
      "ĠBeloworfell": 2874,
      "ĠBelowethgate": 2875,
      "ĠBelorash": 2876,
      "ĠBelorilden": 2877,
      "ĠBelorashmoor": 2878,
      "ĠBelorowford": 2879,
      "ĠNorowethgate": 2880,
      "ĠTarilowholt": 2881,
      "ĠTarilorgate": 2882,
      "ĠTarilumwick": 2883,
      "ĠTarumashwick": 2884,
      "ĠBelaash": 2885,
      "ĠBelaormoor": 2886,
      "ĠBelaaholt": 2887,
      "ĠBelilen": 2888,
      "ĠBelilamoor": 2889,
      "ĠBelilowden": 2890,
      "ĠBelililmoor": 2891,
      "ĠBelilummoor": 2892,
      "ĠFenashor": 2893,
      "ĠFenashenholt": 2894,
      "ĠFenashashholt": 2895,
      "ĠFenashorgate": 2896,
      "ĠFenenor": 2897,
      "ĠTarorilwick": 2898,
      "ĠFenowowden": 2899,
      "ĠFenowagate": 2900,
      "ĠFenowummoor": 2901,
      "ĠFenowethmoor": 2902,
      "ĠNorethi": 2903,
      "ĠNorethen": 2904,
      "ĠNorethowmoor": 2905,
      "ĠNorethagate": 2906,
      "ĠNorethorford": 2907,
      "ĠNorethilmere": 2908,
      "ĠNorethenmoor": 2909,
      "ĠBelethilden": 2910,
      "ĠBelethowgate": 2911,
      "ĠBelethashgate": 2912,
      "ĠBelethilmoor": 2913,
      "ĠBelethumholt": 2914,
      "ĠFenethil": 2915,
      "ĠFenethenwick": 2916,
      "ĠFenethowholt": 2917,
      "ĠFenethorford": 2918,
      "ĠFenethumden": 2919,
      "ĠFenethaford": 2920,
      "ĠTarethilfell": 2921,
      "ĠNorashenford": 2922,
      "ĠNorashormoor": 2923,
      "ĠNorumummere": 2924,
      "ĠNorumilmoor": 2925,
      "ĠNorumashholt": 2926,
      "ĠTaraorgate": 2927,
      "ĠTaraethfell": 2928,
      "ĠFenumilwick": 2929,
      "ĠFenumethmoor": 2930,
      "ĠTarashilwick": 2931,
      "ĠTarashashford": 2932,
      "ĠTarashilfell": 2933,
      "ĠTarashummoor": 2934,
      "ĠBelenawick": 2935,
      "ĠBelenamoor": 2936,
      "ĠBelenethmoor": 2937,
      "ĠNorilumford": 2938,
      "ĠNorilashfell": 2939,
      "ĠNorilenmoor": 2940,
      "ĠNorilethwick": 2941,
      "ĠFenorenford": 2942,
      "ĠFenorenholt": 2943,
      "ĠNorailden": 2944,
      "ĠNoraorford": 2945,
      "ĠTarenashmere": 2946,
      "ĠTarowenmere": 2947,
      "ĠTarowenfell": 2948,
      "ĠFenaummere": 2949,
      "ĠFenaenholt": 2950,
      "ĠFenilormere": 2951,
      "ĠFenilashden": 2952,
      "ĠFenilengate": 2953,
      "ĠFenilumholt": 2954,
      "ĠFenilethholt": 2955,
      "ĠFenilethmoor": 2956,
      "ĠBelumaden": 2957,
      "ĠBelumilholt": 2958,
      "ĠNororilgate": 2959,
      "ĠNorenawick": 2960,
      "ĠNorenethfell": 2961,
      "ĠBelashorholt": 2962,
      "ĠBelashorford": 2963,
      "ĠBelashowford": 2964,
      "ĠBelashummoor": 2965,
      "ĠBeloworholt": 2966,
      "ĠBelorawick": 2967,
      "ĠBelorilmoor": 2968,
      "ĠBelororwick": 2969,
      "ĠBelororfell": 2970,
      "ĠBelorethgate": 2971,
      "ĠBelorethden": 2972,
      "ĠNorowengate": 2973,
      "ĠNorowashford": 2974,
      "ĠNorowilfell": 2975,
      "ĠTarililford": 2976,
      "ĠTarilashholt": 2977,
      "ĠBelaenden": 2978,
      "ĠBelilormere": 2979,
      "ĠBelilethfell": 2980,
      "ĠBelilethmoor": 2981,
      "ĠFenashorholt": 2982,
      "ĠFenashaden": 2983,
      "ĠFenashashmere": 2984,
      "ĠFenashamere": 2985,
      "ĠFenenamere": 2986,
      "ĠTarorenmere": 2987,
      "ĠTaroraden": 2988,
      "ĠFenowumwick": 2989,
      "ĠNorethowmere": 2990,
      "ĠNorethashholt": 2991,
      "ĠBelethumgate": 2992,
      "ĠFenethormere": 2993,
      "ĠFenethashfell": 2994,
      "ĠTarethamoor": 2995,
      "ĠTarethashden": 2996,
      "ĠTarethorwick": 2997,
      "ĠBelethethford": 2998,
      "ĠNorashowwick": 2999,
      "ĠNorashashden": 3000,
      "ĠNorashumwick": 3001,
      "ĠNorashamere": 3002,
      "ĠNorashethmere": 3003,
      "ĠNorumumwick": 3004,
      "ĠNorumilfell": 3005,
      "ĠTaraumfell": 3006,
      "ĠTaraenford": 3007,
      "ĠTaraashfell": 3008,
      "ĠTaraenfell": 3009,
      "ĠFenumas": 3010,
      "ĠFenumummoor": 3011,
      "ĠTarashenford": 3012,
      "ĠBelenenford": 3013,
      "ĠBelenumford": 3014,
      "ĠBelenengate": 3015,
      "ĠNorilashgate": 3016,
      "ĠNorilaford": 3017,
      "ĠNorilethfell": 3018,
      "ĠFenorashmoor": 3019,
      "ĠNoraumfell": 3020,
      "ĠNoraaholt": 3021,
      "ĠNoraumden": 3022,
      "ĠNoraowford": 3023,
      "ĠNoraethgate": 3024,
      "ĠTarenor": 3025,
      "ĠTareneth": 3026,
      "ĠTarenumfell": 3027,
      "ĠTarenashden": 3028,
      "ĠTarenaholt": 3029,
      "ĠTarenaford": 3030,
      "ĠTarowash": 3031,
      "ĠFenaorford": 3032,
      "ĠFenaethmere": 3033,
      "ĠFenililden": 3034,
      "ĠFenilashgate": 3035,
      "ĠBelumas": 3036,
      "ĠBelumum": 3037,
      "ĠBelumashmere": 3038,
      "ĠBelumashford": 3039,
      "ĠNororawick": 3040,
      "ĠNororilford": 3041,
      "ĠNororet": 3042,
      "ĠNorenamere": 3043,
      "ĠBelashumgate": 3044,
      "ĠBelowashmere": 3045,
      "ĠBeloril": 3046,
      "ĠBelorafell": 3047,
      "ĠNorowash": 3048,
      "ĠNorowowmoor": 3049,
      "ĠNorowashmoor": 3050,
      "ĠNoroworgate": 3051,
      "ĠNoroworden": 3052,
      "ĠTarililholt": 3053,
      "ĠTarilumden": 3054,
      "ĠTarumorgate": 3055,
      "ĠBelaashford": 3056,
      "ĠBelilash": 3057,
      "ĠBelilorholt": 3058,
      "ĠBelilenfell": 3059,
      "ĠFenashe": 3060,
      "ĠFenashowholt": 3061,
      "ĠFenashorford": 3062,
      "ĠFenashashmoor": 3063,
      "ĠFenashummoor": 3064,
      "ĠFenashethfell": 3065,
      "ĠFenenilden": 3066,
      "ĠFenenorholt": 3067,
      "ĠFenenorgate": 3068,
      "ĠFenenilmere": 3069,
      "ĠTarorow": 3070,
      "ĠFenowormoor": 3071,
      "ĠFenowashfell": 3072,
      "ĠNorethilfell": 3073,
      "ĠBelethilgate": 3074,
      "ĠBelethilmere": 3075,
      "ĠTarethashford": 3076,
      "ĠTarethumholt": 3077,
      "ĠTarethashwick": 3078,
      "ĠNorashowholt": 3079,
      "ĠNorumowmoor": 3080,
      "ĠNorumashgate": 3081,
      "ĠTaraashmere": 3082,
      "ĠFenumenmere": 3083,
      "ĠFenumaden": 3084,
      "ĠTarashowfell": 3085,
      "ĠTarashaholt": 3086,
      "ĠBelenorgate": 3087,
      "ĠNorililden": 3088,
      "ĠNorilenmere": 3089,
      "ĠNorilethden": 3090,
      "ĠFenorafell": 3091,
      "ĠFenorilmere": 3092,
      "ĠFenorenfell": 3093,
      "ĠFenorethholt": 3094,
      "ĠFenorethford": 3095,
      "ĠNoraashford": 3096,
      "ĠTarowormoor": 3097,
      "ĠFenaowfell": 3098,
      "ĠFenaumgate": 3099,
      "ĠFenaumden": 3100,
      "ĠFenilowgate": 3101,
      "ĠFenilashford": 3102,
      "ĠBelumashholt": 3103,
      "ĠBelumorgate": 3104,
      "ĠNororumgate": 3105,
      "ĠNororethwick": 3106,
      "ĠNorenummere": 3107,
      "ĠNorenilmoor": 3108,
      "ĠBelashaden": 3109,
      "ĠBelashenden": 3110,
      "ĠBelashethgate": 3111,
      "ĠBelowashford": 3112,
      "ĠBelorowgate": 3113,
      "ĠBelorashgate": 3114,
      "ĠBelorenfell": 3115,
      "ĠTarilenholt": 3116,
      "ĠTarumafell": 3117,
      "ĠTarumashfell": 3118,
      "ĠTarumethfell": 3119,
      "ĠBelaashden": 3120,
      "ĠBelililholt": 3121,
      "ĠBelilowford": 3122,
      "ĠFenashilholt": 3123,
      "ĠFenashilfell": 3124,
      "ĠFenenumgate": 3125,
      "ĠTarorowgate": 3126,
      "ĠTarorilford": 3127,
      "ĠTarorashfell": 3128,
      "ĠTaroraholt": 3129,
      "ĠTarorumholt": 3130,
      "ĠFenowumfell": 3131,
      "ĠFenowowwick": 3132,
      "ĠFenowormere": 3133,
      "ĠFenowashholt": 3134,
      "ĠFenowethden": 3135,
      "ĠNorethawick": 3136,
      "ĠBelethenwick": 3137,
      "ĠBelethenden": 3138,
      "ĠBelethenmoor": 3139,
      "ĠTarethenmere": 3140,
      "ĠTarethilford": 3141,
      "ĠTarethorgate": 3142,
      "ĠNorethethholt": 3143,
      "ĠNorethethmoor": 3144,
      "ĠTarethethgate": 3145,
      "ĠFenethethwick": 3146,
      "ĠNorashorford": 3147,
      "ĠNorumowgate": 3148,
      "ĠNorumenford": 3149,
      "ĠNorumowholt": 3150,
      "ĠNorumashwick": 3151,
      "ĠTaraowfell": 3152,
      "ĠTaraashwick": 3153,
      "ĠTarashashden": 3154,
      "ĠBelenum": 3155,
      "ĠBelenormere": 3156,
      "ĠBelenumholt": 3157,
      "ĠBelenowford": 3158,
      "ĠBelenilfell": 3159,
      "ĠBelenethgate": 3160,
      "ĠNorilormere": 3161,
      "ĠNorilorford": 3162,
      "ĠFenorilden": 3163,
      "ĠFenororwick": 3164,
      "ĠFenorummoor": 3165,
      "ĠNoraowmoor": 3166,
      "ĠNoraagate": 3167,
      "ĠTarenas": 3168,
      "ĠTarenenford": 3169,
      "ĠTarowenford": 3170,
      "ĠFenaenwick": 3171,
      "ĠFenilorwick": 3172,
      "ĠBelumilgate": 3173,
      "ĠBelumowfell": 3174,
      "ĠBelumenwick": 3175,
      "ĠNororormoor": 3176,
      "ĠNorororfell": 3177,
      "ĠNorenow": 3178,
      "ĠNorenenmere": 3179,
      "ĠNorenamoor": 3180,
      "ĠNorenumford": 3181,
      "ĠNorenashmoor": 3182,
      "ĠNorenenfell": 3183,
      "ĠBelashenmere": 3184,
      "ĠBelashumford": 3185,
      "ĠBelashilwick": 3186,
      "ĠBelashashgate": 3187,
      "ĠBelashashmoor": 3188,
      "ĠBelowor": 3189,
      "ĠBelowenden": 3190,
      "ĠBelowilmoor": 3191,
      "ĠBelowenmoor": 3192,
      "ĠBelowethden": 3193,
      "ĠBelorumgate": 3194,
      "ĠBeloragate": 3195,
      "ĠBelorashmere": 3196,
      "ĠNorowumgate": 3197,
      "ĠNorowumford": 3198,
      "ĠNorowashholt": 3199,
      "ĠTarilow": 3200,
      "ĠTarilawick": 3201,
      "ĠTarililfell": 3202,
      "ĠTarilenmoor": 3203,
      "ĠTarilummoor": 3204,
      "ĠTarilethholt": 3205,
      "ĠTarilet": 3206,
      "ĠTarumilmoor": 3207,
      "ĠBelaowmoor": 3208,
      "ĠBelaummoor": 3209,
      "ĠBelaethgate": 3210,
      "ĠBelilor": 3211,
      "ĠBelilas": 3212,
      "ĠBeliladen": 3213,
      "ĠBelililford": 3214,
      "ĠBelilumden": 3215,
      "ĠBelilethmere": 3216,
      "ĠBelilethholt": 3217,
      "ĠFenenowholt": 3218,
      "ĠFenenenden": 3219,
      "ĠFenenilford": 3220,
      "ĠTarorumgate": 3221,
      "ĠTarorethwick": 3222,
      "ĠFenowen": 3223,
      "ĠFenowil": 3224,
      "ĠFenowilgate": 3225,
      "ĠFenowenden": 3226,
      "ĠFenowethfell": 3227,
      "ĠNorethamere": 3228,
      "ĠBelethawick": 3229,
      "ĠBelethormere": 3230,
      "ĠBelethashmoor": 3231,
      "ĠFenethor": 3232,
      "ĠFenethenford": 3233,
      "ĠFenethormoor": 3234,
      "ĠFenethowmoor": 3235,
      "ĠFenethilford": 3236,
      "ĠFenethumholt": 3237,
      "ĠTarethashmoor": 3238,
      "ĠTarethethwick": 3239,
      "ĠTarethethford": 3240,
      "ĠBelethethmere": 3241,
      "ĠFenethethholt": 3242,
      "ĠNorashaden": 3243,
      "ĠNorashashmere": 3244,
      "ĠNorumormere": 3245,
      "ĠNorumethgate": 3246,
      "ĠTaraengate": 3247,
      "ĠFenumawick": 3248,
      "ĠFenumenwick": 3249,
      "ĠFenumilmoor": 3250,
      "ĠTarashethfell": 3251,
      "ĠBelenummere": 3252,
      "ĠBelenormoor": 3253,
      "ĠBelenethfell": 3254,
      "ĠNorilethford": 3255,
      "ĠFenorenwick": 3256,
      "ĠFenoramere": 3257,
      "ĠNoraowfell": 3258,
      "ĠNorailwick": 3259,
      "ĠTarenenden": 3260,
      "ĠTarowethgate": 3261,
      "ĠFenaorholt": 3262,
      "ĠFenailwick": 3263,
      "ĠFenaaford": 3264,
      "ĠFenilawick": 3265,
      "ĠFenilenwick": 3266,
      "ĠFenilashmoor": 3267,
      "ĠFenilorgate": 3268,
      "ĠBelumorwick": 3269,
      "ĠBelumilfell": 3270,
      "ĠBelumorden": 3271,
      "ĠNorororholt": 3272,
      "ĠNororumden": 3273,
      "ĠNorenenden": 3274,
      "ĠNorenumholt": 3275,
      "ĠBelashowgate": 3276,
      "ĠBelashorwick": 3277,
      "ĠBelowumford": 3278,
      "ĠBelowashden": 3279,
      "ĠBelowashwick": 3280,
      "ĠNorowashgate": 3281,
      "ĠNorowethford": 3282,
      "ĠTarilenford": 3283,
      "ĠTarilumgate": 3284,
      "ĠTarumaden": 3285,
      "ĠTarumorford": 3286,
      "ĠTarumorwick": 3287,
      "ĠTarumethgate": 3288,
      "ĠBelaamere": 3289,
      "ĠBelaowford": 3290,
      "ĠFenashowgate": 3291,
      "ĠFenenenwick": 3292,
      "ĠFenenorfell": 3293,
      "ĠFenenethfell": 3294,
      "ĠFenenethwick": 3295,
      "ĠTarorilgate": 3296,
      "ĠTarorummere": 3297,
      "ĠTarororholt": 3298,
      "ĠTarorethford": 3299,
      "ĠFenowenfell": 3300,
      "ĠNorethilwick": 3301,
      "ĠNorethengate": 3302,
      "ĠNorethumden": 3303,
      "ĠNorethowford": 3304,
      "ĠFenethashwick": 3305,
      "ĠBelethethmoor": 3306,
      "ĠBelethet": 3307,
      "ĠNorashafell": 3308,
      "ĠNorashowford": 3309,
      "ĠNorashilfell": 3310,
      "ĠNorumeth": 3311,
      "ĠNorumorgate": 3312,
      "ĠNorumethden": 3313,
      "ĠFenumil": 3314,
      "ĠFenumagate": 3315,
      "ĠFenumet": 3316,
      "ĠTarashumfell": 3317,
      "ĠBelenen": 3318,
      "ĠNorilen": 3319,
      "ĠNorilil": 3320,
      "ĠNorilash": 3321,
      "ĠNorilenden": 3322,
      "ĠNorilowmoor": 3323,
      "ĠNorilaholt": 3324,
      "ĠNorilethgate": 3325,
      "ĠFenoror": 3326,
      "ĠFenoramoor": 3327,
      "ĠFenorumwick": 3328,
      "ĠFenorenmoor": 3329,
      "ĠFenorethmere": 3330,
      "ĠNoraormoor": 3331,
      "ĠTarenormoor": 3332,
      "ĠTarowumford": 3333,
      "ĠTarowowden": 3334,
      "ĠTarowaholt": 3335,
      "ĠTarowumholt": 3336,
      "ĠFenaowgate": 3337,
      "ĠFenilenholt": 3338,
      "ĠFenilaford": 3339,
      "ĠFenilethden": 3340,
      "ĠBelumashwick": 3341,
      "ĠBelumethholt": 3342,
      "ĠNororashfell": 3343,
      "ĠNorenil": 3344,
      "ĠNorenowmoor": 3345,
      "ĠNorenethwick": 3346,
      "ĠBelasheth": 3347,
      "ĠBelashethfell": 3348,
      "ĠBelashethmere": 3349,
      "ĠBelowet": 3350,
      "ĠBeloramere": 3351,
      "ĠBelorummoor": 3352,
      "ĠNorowethmoor": 3353,
      "ĠTarilowgate": 3354,
      "ĠTarilashmoor": 3355,
      "ĠTarumow": 3356,
      "ĠTarumowford": 3357,
      "ĠTarumilmere": 3358,
      "ĠBelaummere": 3359,
      "ĠBelaumford": 3360,
      "ĠBelaowmere": 3361,
      "ĠBelaorford": 3362,
      "ĠBelaorwick": 3363,
      "ĠBelaaford": 3364,
      "ĠBelilowmere": 3365,
      "ĠBelilengate": 3366,
      "ĠBelilaholt": 3367,
      "ĠBelilorfell": 3368,
      "ĠBelilethden": 3369,
      "ĠFenashilwick": 3370,
      "ĠFenashethholt": 3371,
      "ĠFenenaden": 3372,
      "ĠFenenashholt": 3373,
      "ĠTarorowholt": 3374,
      "ĠTarorashmere": 3375,
      "ĠTarorumwick": 3376,
      "ĠFenowashwick": 3377,
      "ĠFenoworden": 3378,
      "ĠNorethashmoor": 3379,
      "ĠNorethorfell": 3380,
      "ĠBelethashmere": 3381,
      "ĠBelethaford": 3382,
      "ĠFenethow": 3383,
      "ĠFenethashden": 3384,
      "ĠFenethilmere": 3385,
      "ĠFenethorden": 3386,
      "ĠTarethafell": 3387,
      "ĠTarethashgate": 3388,
      "ĠTarethummoor": 3389,
      "ĠFenethethden": 3390,
      "ĠNorashashford": 3391,
      "ĠNorumilholt": 3392,
      "ĠNorumashmere": 3393,
      "ĠNorumenmoor": 3394,
      "ĠTaraowwick": 3395,
      "ĠTarailholt": 3396,
      "ĠTaraaholt": 3397,
      "ĠTaraummoor": 3398,
      "ĠFenumamoor": 3399,
      "ĠTarashorden": 3400,
      "ĠBelenashwick": 3401,
      "ĠNorilashford": 3402,
      "ĠFenorilwick": 3403,
      "ĠFenorowford": 3404,
      "ĠNoraorholt": 3405,
      "ĠNoraafell": 3406,
      "ĠNoraashmoor": 3407,
      "ĠNoraaford": 3408,
      "ĠTarenethmere": 3409,
      "ĠTarowenholt": 3410,
      "ĠTarowenmoor": 3411,
      "ĠFenailholt": 3412,
      "ĠFenilowfell": 3413,
      "ĠFenilorholt": 3414,
      "ĠFenililmere": 3415,
      "ĠFenilorfell": 3416,
      "ĠBelumormoor": 3417,
      "ĠBelumethwick": 3418,
      "ĠNororilholt": 3419,
      "ĠNororashden": 3420,
      "ĠNororowford": 3421,
      "ĠNororethmoor": 3422,
      "ĠBelashilmere": 3423,
      "ĠBelashethden": 3424,
      "ĠBelorowfell": 3425,
      "ĠBelorumford": 3426,
      "ĠBelorowden": 3427,
      "ĠNoroworholt": 3428,
      "ĠTarililmere": 3429,
      "ĠTarilethfell": 3430,
      "ĠTarumormere": 3431,
      "ĠBelaorden": 3432,
      "ĠBelililden": 3433,
      "ĠBelilowmoor": 3434,
      "ĠFenenowmoor": 3435,
      "ĠFenenormere": 3436,
      "ĠFenenashmoor": 3437,
      "ĠFenenorwick": 3438,
      "ĠFenowenholt": 3439,
      "ĠBelethorwick": 3440,
      "ĠBelethumwick": 3441,
      "ĠFenethilgate": 3442,
      "ĠFenethashholt": 3443,
      "ĠFenethummoor": 3444,
      "ĠTarethethholt": 3445,
      "ĠTarethethden": 3446,
      "ĠBelethethwick": 3447,
      "ĠFenethethford": 3448,
      "ĠNorashor": 3449,
      "ĠNorashenholt": 3450,
      "ĠNorashaford": 3451,
      "ĠNorumow": 3452,
      "ĠNorumumgate": 3453,
      "ĠNorumet": 3454,
      "ĠTaraethmoor": 3455,
      "ĠFenumumden": 3456,
      "ĠFenumethgate": 3457,
      "ĠBelenowmoor": 3458,
      "ĠBelenashden": 3459,
      "ĠBelenumden": 3460,
      "ĠNorilamoor": 3461,
      "ĠNorilenfell": 3462,
      "ĠNoraamoor": 3463,
      "ĠNoraumgate": 3464,
      "ĠNoraashden": 3465,
      "ĠTarenilwick": 3466,
      "ĠTarowamoor": 3467,
      "ĠTarowowwick": 3468,
      "ĠTarowengate": 3469,
      "ĠFenilum": 3470,
      "ĠFenilil": 3471,
      "ĠFenilenden": 3472,
      "ĠFenilowmoor": 3473,
      "ĠNororor": 3474,
      "ĠNororashford": 3475,
      "ĠNorenen": 3476,
      "ĠNorenafell": 3477,
      "ĠNorenilmere": 3478,
      "ĠNorenummoor": 3479,
      "ĠBelashi": 3480,
      "ĠBelashorgate": 3481,
      "ĠBelashenfell": 3482,
      "ĠBelowil": 3483,
      "ĠBelowilgate": 3484,
      "ĠBelowawick": 3485,
      "ĠBelowethmere": 3486,
      "ĠBeloror": 3487,
      "ĠBelorilholt": 3488,
      "ĠBelororgate": 3489,
      "ĠNorowor": 3490,
      "ĠNorowormoor": 3491,
      "ĠNorowethwick": 3492,
      "ĠTarilum": 3493,
      "ĠTarilorford": 3494,
      "ĠTarumum": 3495,
      "ĠTarumashholt": 3496,
      "ĠTarumorden": 3497,
      "ĠBelaormere": 3498,
      "ĠBelaashmere": 3499,
      "ĠBelaethden": 3500,
      "ĠBelilashholt": 3501,
      "ĠBelilamere": 3502,
      "ĠFenashash": 3503,
      "ĠFenashowmoor": 3504,
      "ĠFenashethgate": 3505,
      "ĠFenenum": 3506,
      "ĠFenenilmoor": 3507,
      "ĠTarorenwick": 3508,
      "ĠTarorormere": 3509,
      "ĠTarororford": 3510,
      "ĠNorethenden": 3511,
      "ĠNorethilford": 3512,
      "ĠBelethummoor": 3513,
      "ĠTarethi": 3514,
      "ĠTarethilwick": 3515,
      "ĠTarethilmoor": 3516,
      "ĠNorethethden": 3517,
      "ilfel": 3518,
      "ĠNorashethwick": 3519,
      "ĠNorumethford": 3520,
      "ĠFenumilholt": 3521,
      "ĠFenumethwick": 3522,
      "ĠTarashowden": 3523,
      "ĠTarashafell": 3524,
      "ĠTarashashfell": 3525,
      "ĠTarashorwick": 3526,
      "ĠNorilawick": 3527,
      "ĠNorilashholt": 3528,
      "ĠNorilengate": 3529,
      "ĠNorilamere": 3530,
      "ĠNoraumford": 3531,
      "ĠNoraashfell": 3532,
      "ĠTarenilden": 3533,
      "ĠTarenashfell": 3534,
      "ĠTarenorford": 3535,
      "ĠTarenorwick": 3536,
      "ĠTarenengate": 3537,
      "ĠTaroworholt": 3538,
      "ĠFenailmere": 3539,
      "ĠFenaethmoor": 3540,
      "ĠFenililwick": 3541,
      "ĠFenilenmoor": 3542,
      "ĠBelumowholt": 3543,
      "ĠBelumowden": 3544,
      "ĠBelumilmere": 3545,
      "ĠNororummere": 3546,
      "ĠNororethmere": 3547,
      "ĠNororethford": 3548,
      "ĠBelashummere": 3549,
      "ĠBelowaden": 3550,
      "ĠBelorashwick": 3551,
      "ĠBelorethmere": 3552,
      "ĠNorowaford": 3553,
      "ĠTarilashgate": 3554,
      "ĠTarilashmere": 3555,
      "ĠTarumilholt": 3556,
      "ĠBelaenford": 3557,
      "ĠFenashormoor": 3558,
      "ĠFenashowmere": 3559,
      "ĠTarorashford": 3560,
      "ĠFenowaholt": 3561,
      "ĠFenowowford": 3562,
      "ĠNorethumfell": 3563,
      "ĠNorethormoor": 3564,
      "ĠNorethaholt": 3565,
      "ĠBelethowden": 3566,
      "ĠBelethilwick": 3567,
      "ĠFenethorholt": 3568,
      "ĠTarethorford": 3569,
      "ĠTarethorfell": 3570,
      "ĠTarethaford": 3571,
      "ĠFenethethfell": 3572,
      "Noretheth": 3573,
      "ĠNorasheth": 3574,
      "ĠNorumengate": 3575,
      "ĠTaraethholt": 3576,
      "ĠTaraethden": 3577,
      "ĠFenumor": 3578,
      "ĠFenumilford": 3579,
      "ĠFenumaford": 3580,
      "ĠFenumethford": 3581,
      "ĠTarashu": 3582,
      "ĠTarashashmoor": 3583,
      "ĠTarashashholt": 3584,
      "ĠTarashumwick": 3585,
      "ĠBelenas": 3586,
      "ĠNorilowden": 3587,
      "ĠNorililford": 3588,
      "ĠNorilafell": 3589,
      "ĠFenorow": 3590,
      "ĠFenorumden": 3591,
      "ĠNoraorfell": 3592,
      "ĠNoraenmoor": 3593,
      "ĠTarenowholt": 3594,
      "ĠTarenumford": 3595,
      "ĠTarenilford": 3596,
      "ĠTarenethgate": 3597,
      "ĠTarenethden": 3598,
      "ĠFenaethden": 3599,
      "ĠFenilas": 3600,
      "ĠFenilowford": 3601,
      "ĠFenilashwick": 3602,
      "ĠNororenholt": 3603,
      "ĠNororilfell": 3604,
      "ĠNorenilford": 3605,
      "ĠNorenashmere": 3606,
      "ĠNorenorfell": 3607,
      "ĠBelashilden": 3608,
      "ĠBelashethford": 3609,
      "ĠBelashethmoor": 3610,
      "ĠBelowethmoor": 3611,
      "ĠTarilumholt": 3612,
      "ĠTarumilden": 3613,
      "ĠBelailmere": 3614,
      "ĠBelilumfell": 3615,
      "ĠBelilowgate": 3616,
      "ĠBelilafell": 3617,
      "ĠFenashum": 3618,
      "ĠFenashenford": 3619,
      "ĠFenashilford": 3620,
      "ĠFenashorden": 3621,
      "ĠFenenowden": 3622,
      "ĠTaroror": 3623,
      "ĠTarorum": 3624,
      "ĠFenowor": 3625,
      "ĠFenowash": 3626,
      "ĠFenoworholt": 3627,
      "ĠFenowilholt": 3628,
      "ĠFenowowmoor": 3629,
      "ĠNorethowfell": 3630,
      "ĠBelethashfell": 3631,
      "ĠFenethaden": 3632,
      "ĠFenethenfell": 3633,
      "ĠTarethash": 3634,
      "ĠTarethashmere": 3635,
      "ĠTaraagate": 3636,
      "ĠFenumumford": 3637,
      "ĠTarashowwick": 3638,
      "ĠTarashashmere": 3639,
      "ĠTarashorgate": 3640,
      "ĠTarashashwick": 3641,
      "ĠBelenashfell": 3642,
      "ĠBelenorfell": 3643,
      "ĠNorililmere": 3644,
      "ĠNorilethholt": 3645,
      "ĠFenorumfell": 3646,
      "ĠNoraowgate": 3647,
      "ĠTarenashmoor": 3648,
      "ĠTarowenden": 3649,
      "ĠTarowagate": 3650,
      "ĠTaroworford": 3651,
      "ĠTarowashden": 3652,
      "ĠTarowethholt": 3653,
      "ĠFenaorwick": 3654,
      "ĠFenailfell": 3655,
      "ĠFenaethford": 3656,
      "ĠNororaford": 3657,
      "ĠNorenorgate": 3658,
      "ĠNorenenmoor": 3659,
      "ĠBelashilford": 3660,
      "ĠBelashafell": 3661,
      "ĠBelowashgate": 3662,
      "ĠBeloramoor": 3663,
      "ĠBelorethholt": 3664,
      "ĠNorowenwick": 3665,
      "ĠNorowenholt": 3666,
      "ĠNorowamere": 3667,
      "ĠNorowummoor": 3668,
      "ĠTarililgate": 3669,
      "ĠTarilenwick": 3670,
      "ĠTarilormere": 3671,
      "ĠTarilaholt": 3672,
      "ĠBelaethmere": 3673,
      "ĠBelaethmoor": 3674,
      "ĠFenashethwick": 3675,
      "ĠFenenenfell": 3676,
      "ĠFenenaford": 3677,
      "ĠTarorowmoor": 3678,
      "ĠTarorilmere": 3679,
      "ĠTarorenfell": 3680,
      "ĠTarorummoor": 3681,
      "ĠFenoworwick": 3682,
      "ĠFenowethholt": 3683,
      "ĠNorethowden": 3684,
      "ĠFenethowmere": 3685,
      "ĠTarethawick": 3686,
      "ĠTarethumford": 3687,
      "ĠNorashilden": 3688,
      "ĠNorashashmoor": 3689,
      "ĠTaraormere": 3690,
      "ĠTaraashford": 3691,
      "ĠFenumorgate": 3692,
      "ĠFenumilmere": 3693,
      "ĠFenumilfell": 3694,
      "ĠTarashi": 3695,
      "ĠBelenowholt": 3696,
      "ĠBelenilholt": 3697,
      "ĠBelenumgate": 3698,
      "ĠBelenummoor": 3699,
      "ĠNorilum": 3700,
      "ĠNorilashwick": 3701,
      "ĠNorilet": 3702,
      "ĠFenorashfell": 3703,
      "ĠFenoragate": 3704,
      "ĠFenoret": 3705,
      "ĠNoraorwick": 3706,
      "ĠFenaenford": 3707,
      "ĠNororil": 3708,
      "ĠNorenilgate": 3709,
      "ĠNorenethmoor": 3710,
      "ĠBelashu": 3711,
      "ĠBelashash": 3712,
      "ĠBelashashwick": 3713,
      "ĠBelashenmoor": 3714,
      "ĠNorowen": 3715,
      "ĠNorowowgate": 3716,
      "ĠNorowilmere": 3717,
      "ĠTarilas": 3718,
      "ĠTarumor": 3719,
      "ĠTarumas": 3720,
      "ĠTarumash": 3721,
      "ĠTarumenmoor": 3722,
      "ĠTarumethmoor": 3723,
      "ĠBelaashholt": 3724,
      "ĠBelilashmoor": 3725,
      "ĠBelilumwick": 3726,
      "ĠBelililmere": 3727,
      "ĠFenashumwick": 3728,
      "ĠFenashaford": 3729,
      "ĠFenenas": 3730,
      "ĠFenenashfell": 3731,
      "ĠFenenashden": 3732,
      "ĠFenenumden": 3733,
      "ĠFenenummoor": 3734,
      "ĠFenowashgate": 3735,
      "ĠFenowumden": 3736,
      "ĠNorethash": 3737,
      "ĠNorethenfell": 3738,
      "ĠNorethummoor": 3739,
      "ĠBelethaden": 3740,
      "ĠBelethengate": 3741,
      "ĠFenethawick": 3742,
      "ummer": 3743,
      "ĠBelethethfell": 3744,
      "ĠFenumenden": 3745,
      "ĠFenumowford": 3746,
      "ĠTarashormoor": 3747,
      "ĠBelenowfell": 3748,
      "ĠBelenethden": 3749,
      "ĠNoraashgate": 3750,
      "ĠNoraorgate": 3751,
      "ĠTarenenmere": 3752,
      "ĠTarowummere": 3753,
      "ĠFenaagate": 3754,
      "ĠBelumumden": 3755,
      "ĠNororenwick": 3756,
      "ĠNorenethgate": 3757,
      "ĠBelashowholt": 3758,
      "ĠBelashorfell": 3759,
      "ĠBelowowmere": 3760,
      "ĠBelowumwick": 3761,
      "ĠBelowethwick": 3762,
      "ĠBelorenholt": 3763,
      "ĠNorowumholt": 3764,
      "ĠTarilashford": 3765,
      "ĠTarumormoor": 3766,
      "ĠTarumagate": 3767,
      "ĠBelailfell": 3768,
      "ĠBelaethwick": 3769,
      "ĠBelilormoor": 3770,
      "ĠBelilashgate": 3771,
      "ĠBelilorford": 3772,
      "ĠBelilorden": 3773,
      "ĠFenashorwick": 3774,
      "ĠFenowenwick": 3775,
      "ĠFenowaden": 3776,
      "ĠFenowethford": 3777,
      "ĠNorethumford": 3778,
      "ĠBelethowwick": 3779,
      "ĠBelethumden": 3780,
      "ĠBelethashwick": 3781,
      "ĠFenethowden": 3782,
      "ĠFenethumwick": 3783,
      "ĠFenethowford": 3784,
      "ĠTarethashfell": 3785,
      "ĠFenethethmere": 3786,
      "ĠTaraowford": 3787,
      "ĠFenumumwick": 3788,
      "ĠNorilowwick": 3789,
      "ĠFenoras": 3790,
      "ĠFenororgate": 3791,
      "ĠFenorumholt": 3792,
      "ĠFenororfell": 3793,
      "ĠNoraumholt": 3794,
      "ĠTarenow": 3795,
      "ĠTarenum": 3796,
      "ĠTarenilgate": 3797,
      "ĠTarenowmoor": 3798,
      "ĠTarowen": 3799,
      "ĠTarowaford": 3800,
      "ĠTarowet": 3801,
      "ĠFenaumwick": 3802,
      "ĠFenilor": 3803,
      "ĠFenilen": 3804,
      "ĠFenilenfell": 3805,
      "ĠFenilethwick": 3806,
      "ĠFenilowm": 3807,
      "ĠBelumet": 3808,
      "ĠNororashmere": 3809,
      "ĠNorenashfell": 3810,
      "ĠBelorummere": 3811,
      "ĠBelorashholt": 3812,
      "ĠBeloret": 3813,
      "ĠNorowow": 3814,
      "ĠNorowumden": 3815,
      "ĠTarilormoor": 3816,
      "ĠTarumethmere": 3817,
      "ĠBelilow": 3818,
      "ĠBelilowwick": 3819,
      "ĠBelilagate": 3820,
      "ĠFenasheth": 3821,
      "ĠFenenil": 3822,
      "ĠFenenowford": 3823,
      "ĠTaroren": 3824,
      "ĠTarorilden": 3825,
      "ĠTarorumf": 3826,
      "ĠFenowas": 3827,
      "ĠFenowethgate": 3828,
      "ĠNorethenholt": 3829,
      "ĠNorethorden": 3830,
      "ĠBelethi": 3831,
      "ĠBelethagate": 3832,
      "ĠFenethi": 3833,
      "ĠFenethu": 3834,
      "ĠFenethenmoor": 3835,
      "Beletheth": 3836,
      "ĠFenethethgate": 3837,
      "orgat": 3838,
      "ĠNorashilford": 3839,
      "ĠTaraumden": 3840,
      "ĠFenumashholt": 3841,
      "ĠFenumamere": 3842,
      "ĠTarashagate": 3843,
      "ĠTarashethmere": 3844,
      "ĠBelenamere": 3845,
      "ĠNorilumwick": 3846,
      "ĠTarowaden": 3847,
      "ĠTarowilmoor": 3848,
      "ĠTarowamere": 3849,
      "ĠTarowowford": 3850,
      "ĠFenaethwick": 3851,
      "ĠFenililmoor": 3852,
      "ĠBelumengate": 3853,
      "ĠNororumfell": 3854,
      "ĠNorenashden": 3855,
      "ĠBelashowwick": 3856,
      "ĠBeloworford": 3857,
      "ĠNorowenford": 3858,
      "ĠTarilamere": 3859,
      "ĠBelaowgate": 3860,
      "ĠBelililgate": 3861,
      "ĠBelilenholt": 3862,
      "ĠBelilashmere": 3863,
      "ĠFenashashden": 3864,
      "ĠFenenethgate": 3865,
      "ĠTaroramoor": 3866,
      "ĠTarorethholt": 3867,
      "ĠFenowowmere": 3868,
      "ĠTarethilholt": 3869,
      "ĠTarethengate": 3870,
      "ĠNorashi": 3871,
      "ĠNorashenmere": 3872,
      "ĠNorumil": 3873,
      "ĠNorumenwick": 3874,
      "ĠNorumorford": 3875,
      "ĠNorumorm": 3876,
      "ĠTaraorwick": 3877,
      "ĠTaraummo": 3878,
      "ĠFenumen": 3879,
      "ĠFenumow": 3880,
      "ĠFenumum": 3881,
      "ĠBelenow": 3882,
      "ĠBelenilmere": 3883,
      "ĠBelenenmoor": 3884,
      "ĠFenoren": 3885,
      "ĠNoraethden": 3886,
      "ĠTarenenfell": 3887,
      "ĠTarowas": 3888,
      "ĠTaroworfell": 3889,
      "ĠFenilowden": 3890,
      "ĠFenilumwick": 3891,
      "ĠBelumen": 3892,
      "ĠBelumethden": 3893,
      "ĠNororum": 3894,
      "ĠBelashenwick": 3895,
      "ĠBelashengate": 3896,
      "ĠBelashashford": 3897,
      "ĠBelashethholt": 3898,
      "ĠBelorow": 3899,
      "ĠBeloras": 3900,
      "ĠNorowormere": 3901,
      "ĠTarumethford": 3902,
      "ĠTarumet": 3903,
      "ĠBelaashfell": 3904,
      "ĠFenashu": 3905,
      "ĠFenashumgate": 3906,
      "ĠFenashethmoor": 3907,
      "ĠFenenashford": 3908,
      "ĠFenenumholt": 3909,
      "ĠFenenenmoor": 3910,
      "ĠTarethu": 3911,
      "ĠTarethaholt": 3912,
      "ĠTarethumwick": 3913,
      "ĠNorumethholt": 3914,
      "ĠTarenumden": 3915,
      "ĠBelashaford": 3916,
      "ĠBelorilfell": 3917,
      "ĠTarumumgate": 3918,
      "ĠTarumashford": 3919,
      "ĠTarumenfell": 3920,
      "ĠBelilenmere": 3921,
      "ĠFenowamoor": 3922,
      "ĠTarethumgate": 3923,
      "Fenetheth": 3924,
      "ĠTarashenmoor": 3925,
      "ĠBelenorholt": 3926,
      "ĠBelenet": 3927,
      "ĠBelenorm": 3928,
      "ĠBelenilm": 3929,
      "ĠNorilorfell": 3930,
      "ĠTarenet": 3931,
      "ĠTarenenm": 3932,
      "ĠTarowow": 3933,
      "ĠTarowenf": 3934,
      "ĠFenaum": 3935,
      "ĠBelumethgate": 3936,
      "ĠNorenagate": 3937,
      "ĠBelowaholt": 3938,
      "ĠBelowethholt": 3939,
      "ĠNorowil": 3940,
      "ĠNorowethholt": 3941,
      "ĠTarilen": 3942,
      "ĠTarilethgate": 3943,
      "ĠTarilowf": 3944,
      "ĠTarumengate": 3945,
      "ĠFenashashwick": 3946,
      "ĠFenenen": 3947,
      "ĠFenenenford": 3948,
      "ĠFenenumwick": 3949,
      "ĠFenenet": 3950,
      "ĠBelethash": 3951,
      "ĠFenethummere": 3952,
      "ĠNorashethden": 3953,
      "ĠTarenenholt": 3954,
      "ĠTarowethford": 3955,
      "ĠFenaowholt": 3956,
      "ĠFenailmoor": 3957,
      "ĠBelowummoor": 3958,
      "ĠBelorethfell": 3959,
      "ĠTarilethden": 3960,
      "ĠTarumilford": 3961,
      "ĠBelaumholt": 3962,
      "ĠBelilashwick": 3963,
      "ĠFenenorden": 3964,
      "ĠTarorowmere": 3965,
      "ĠNorashenfell": 3966,
      "ĠNorumowm": 3967,
      "ĠNorumilm": 3968,
      "ĠBelenil": 3969,
      "ĠBelenenf": 3970,
      "ĠNorilethmere": 3971,
      "ĠFenoril": 3972,
      "ĠFenororford": 3973,
      "ĠNoraow": 3974,
      "ĠTarenil": 3975,
      "ĠTarowor": 3976,
      "ĠTaroworm": 3977,
      "ĠTarowumf": 3978,
      "ĠFenaashholt": 3979,
      "ĠFenaumm": 3980,
      "ĠBelumethfell": 3981,
      "ĠNororas": 3982,
      "ĠNororafell": 3983,
      "ĠNorenas": 3984,
      "ĠBelashorden": 3985,
      "ĠBeloren": 3986,
      "ĠNorowilmoor": 3987,
      "ĠTarilo": 3988,
      "ĠTarilowwick": 3989,
      "ĠTarumen": 3990,
      "ĠTarumummoor": 3991,
      "ĠTarumethden": 3992,
      "ĠBelilumf": 3993,
      "ĠFenenowwick": 3994,
      "ĠTaroras": 3995,
      "ĠTaroril": 3996,
      "ĠFenowilden": 3997,
      "ĠNorethil": 3998,
      "ĠBelethum": 3999,
      "ĠBelethethden": 4000,
      "orfel": 4001,
      "umgat": 4002,
      "ummoo": 4003,
      "ĠTaraowden": 4004,
      "ĠBelumilwick": 4005,
      "ĠNorenorden": 4006,
      "ĠNorowashden": 4007,
      "ĠNorowenfell": 4008,
      "ĠTarumilfell": 4009,
      "ĠBelailgate": 4010,
      "ĠBelailmoor": 4011,
      "ĠFenenowfell": 4012,
      "ĠNorumenf": 4013,
      "ĠTaraethf": 4014,
      "ĠFenumilf": 4015,
      "ĠTarasheth": 4016,
      "ĠBelenenm": 4017,
      "ĠNorilorm": 4018,
      "ĠFenora": 4019,
      "ĠTarene": 4020,
      "ĠTarenorm": 4021,
      "ĠTarenilf": 4022,
      "ĠFenilet": 4023,
      "ĠNorenet": 4024,
      "ĠNorenenm": 4025,
      "ĠBelowilf": 4026,
      "ĠBelorowm": 4027,
      "ĠBelorumf": 4028,
      "ĠTarilaford": 4029,
      "ĠTarorumden": 4030,
      "ĠTarorenmoor": 4031,
      "ĠTaroret": 4032,
      "ĠFenowummere": 4033,
      "ĠFenowilf": 4034,
      "ĠTarethenden": 4035,
      "ĠFenororden": 4036,
      "ĠFenilummoor": 4037,
      "ĠBelashilmoor": 4038,
      "ĠFenashethden": 4039,
      "ĠFenethowgate": 4040,
      "ĠNorumumf": 4041,
      "ĠBelene": 4042,
      "ĠNorilumm": 4043,
      "ĠNorilenf": 4044,
      "ĠNorilowf": 4045,
      "ĠFenorowfell": 4046,
      "ĠFenorumf": 4047,
      "ĠTarenen": 4048,
      "ĠTarowa": 4049,
      "ĠFenilowh": 4050,
      "ĠBelumil": 4051,
      "ĠNororow": 4052,
      "ĠNorenum": 4053,
      "ĠNorenethford": 4054,
      "ĠNorowum": 4055,
      "ĠTarilengate": 4056,
      "ĠFenashi": 4057,
      "ĠFenashashgate": 4058,
      "ĠFeneno": 4059,
      "ĠFenenamoor": 4060,
      "ĠFenowilmoor": 4061,
      "ĠFenowenf": 4062,
      "ashme": 4063,
      "ĠFenashafell": 4064,
      "ĠNorashaf": 4065,
      "ĠNorume": 4066,
      "ĠTaraorfo": 4067,
      "ĠTarasham": 4068,
      "ĠBeleneng": 4069,
      "ĠFenorenf": 4070,
      "ĠNorail": 4071,
      "ĠNoraashf": 4072,
      "ĠFenililfell": 4073,
      "ĠFenilorm": 4074,
      "ĠNorororm": 4075,
      "ĠNororenm": 4076,
      "ĠNorenor": 4077,
      "ĠNorenumf": 4078,
      "ĠBelorenm": 4079,
      "ĠNorowilf": 4080,
      "ĠTarilowm": 4081,
      "ĠTarumorfell": 4082,
      "ĠBelilumm": 4083,
      "ĠBelilenf": 4084,
      "ĠTarorowford": 4085,
      "ĠNorethu": 4086,
      "ĠBelethu": 4087,
      "ĠFenethash": 4088,
      "owfel": 4089,
      "ĠTaraowmere": 4090,
      "ĠFenoraford": 4091,
      "ĠNorumumm": 4092,
      "ĠNorumorf": 4093,
      "ĠFenumorm": 4094,
      "ĠFenumenf": 4095
    },
    "merges": [
      [
        "o",
        "r"
      ],
      [
        "e",
        "n"
      ],
      [
        "t",
        "h"
      ],
      [
        "a",
        "r"
      ],
      [
        "e",
        "l"
      ],
      [
        "Ġ",
        "a"
      ],
      [
        "i",
        "n"
      ],
      [
        "Ġ",
        "r"
      ],
      [
        "th",
        "e"
      ],
      [
        "e",
        "r"
      ],
      [
        "o",
        "w"
      ],
      [
        "Ġ",
        "the"
      ],
      [
        "Ġ",
        "c"
      ],
      [
        "a",
        "s"
      ],
      [
        "u",
        "m"
      ],
      [
        "Ġ",
        "T"
      ],
      [
        "i",
        "l"
      ],
      [
        "e",
        "d"
      ],
      [
        "Ġ",
        "s"
      ],
      [
        "N",
        "or"
      ],
      [
        "Ġ",
        "B"
      ],
      [
        "F",
        "en"
      ],
      [
        "Ġ",
        "w"
      ],
      [
        "Ġ",
        "t"
      ],
      [
        "Ġ",
        "Nor"
      ],
      [
        "as",
        "h"
      ],
      [
        "ĠT",
        "ar"
      ],
      [
        "ĠB",
        "el"
      ],
      [
        "Ġ",
        "Fen"
      ],
      [
        "n",
        "d"
      ],
      [
        "e",
        "th"
      ],
      [
        "Ġ",
        "f"
      ],
      [
        "o",
        "u"
      ],
      [
        "o",
        "l"
      ],
      [
        "o",
        "n"
      ],
      [
        "a",
        "t"
      ],
      [
        "in",
        "g"
      ],
      [
        "e",
        "s"
      ],
      [
        "Ġ",
        "b"
      ],
      [
        "Ġt",
        "o"
      ],
      [
        "or",
        "d"
      ],
      [
        "Ġa",
        "nd"
      ],
      [
        "h",
        "e"
      ],
      [
        "i",
        "c"
      ],
      [
        "Ġ",
        "i"
      ],
      [
        "Ġ",
        "l"
      ],
      [
        "a",
        "d"
      ],
      [
        "a",
        "g"
      ],
      [
        "Ġ",
        "d"
      ],
      [
        "el",
        "l"
      ],
      [
        "er",
        "e"
      ],
      [
        "m",
        "o"
      ],
      [
        "Ġ",
        "in"
      ],
      [
        "Ġ",
        "o"
      ],
      [
        "Ġ",
        "p"
      ],
      [
        "Ġo",
        "f"
      ],
      [
        "h",
        "ol"
      ],
      [
        "o",
        "o"
      ],
      [
        "w",
        "ic"
      ],
      [
        "a",
        "i"
      ],
      [
        "m",
        "ere"
      ],
      [
        "hol",
        "t"
      ],
      [
        "ou",
        "r"
      ],
      [
        "at",
        "e"
      ],
      [
        "wic",
        "k"
      ],
      [
        "f",
        "ell"
      ],
      [
        "mo",
        "or"
      ],
      [
        "f",
        "ord"
      ],
      [
        "o",
        "m"
      ],
      [
        "Ġr",
        "e"
      ],
      [
        "g",
        "ate"
      ],
      [
        "Ġ",
        "g"
      ],
      [
        "d",
        "en"
      ],
      [
        "Ġ",
        "1"
      ],
      [
        "Ġs",
        "t"
      ],
      [
        "a",
        "l"
      ],
      [
        "oo",
        "d"
      ],
      [
        "g",
        "h"
      ],
      [
        "Ġ",
        "n"
      ],
      [
        "r",
        "i"
      ],
      [
        "t",
        "s"
      ],
      [
        "Ġ",
        "h"
      ],
      [
        "'",
        "s"
      ],
      [
        "Ġ",
        "C"
      ],
      [
        "Ġ",
        "m"
      ],
      [
        "l",
        "e"
      ],
      [
        "ag",
        "e"
      ],
      [
        "o",
        "s"
      ],
      [
        "t",
        "er"
      ],
      [
        "ĠT",
        "he"
      ],
      [
        "o",
        "ad"
      ],
      [
        "a",
        "n"
      ],
      [
        "Ġ",
        "~"
      ],
      [
        "Ġi",
        "s"
      ],
      [
        "b",
        "l"
      ],
      [
        "Ġr",
        "ai"
      ],
      [
        "a",
        "m"
      ],
      [
        "Ġst",
        "or"
      ],
      [
        "on",
        "e"
      ],
      [
        "e",
        "e"
      ],
      [
        "Ġc",
        "ar"
      ],
      [
        "Ġc",
        "our"
      ],
      [
        "or",
        "k"
      ],
      [
        "Ġn",
        "e"
      ],
      [
        "Ġd",
        "r"
      ],
      [
        "c",
        "e"
      ],
      [
        "ow",
        "n"
      ],
      [
        "a",
        "y"
      ],
      [
        "Ġc",
        "om"
      ],
      [
        "Ġr",
        "oad"
      ],
      [
        "Ġc",
        "r"
      ],
      [
        "Ġg",
        "o"
      ],
      [
        "ri",
        "age"
      ],
      [
        "Ġcar",
        "riage"
      ],
      [
        "Ġw",
        "as"
      ],
      [
        "Ġ",
        "?"
      ],
      [
        "Ġi",
        "f"
      ],
      [
        "Ġ",
        "u"
      ],
      [
        "Ġf",
        "or"
      ],
      [
        "Ġw",
        "ork"
      ],
      [
        "ag",
        "on"
      ],
      [
        "Ġdr",
        "agon"
      ],
      [
        "Ġcom",
        "p"
      ],
      [
        "r",
        "e"
      ],
      [
        "gh",
        "t"
      ],
      [
        "ar",
        "d"
      ],
      [
        "an",
        "y"
      ],
      [
        "Ġcomp",
        "any"
      ],
      [
        "Ġre",
        "p"
      ],
      [
        "o",
        "t"
      ],
      [
        "Ġa",
        "s"
      ],
      [
        "o",
        "in"
      ],
      [
        "f",
        "ter"
      ],
      [
        "er",
        "s"
      ],
      [
        "ai",
        "r"
      ],
      [
        "Ġrep",
        "air"
      ],
      [
        "v",
        "es"
      ],
      [
        "T",
        "he"
      ],
      [
        "Ġ",
        "A"
      ],
      [
        "Ġs",
        "h"
      ],
      [
        "s",
        "ed"
      ],
      [
        "ĠNor",
        "ash"
      ],
      [
        "ĠNor",
        "um"
      ],
      [
        "ĠTar",
        "a"
      ],
      [
        "i",
        "on"
      ],
      [
        "Ġb",
        "u"
      ],
      [
        "ĠFen",
        "um"
      ],
      [
        "Ġa",
        "t"
      ],
      [
        "Ġa",
        "fter"
      ],
      [
        "os",
        "t"
      ],
      [
        "ĠTar",
        "ash"
      ],
      [
        "ĠBel",
        "en"
      ],
      [
        "ĠNor",
        "il"
      ],
      [
        "ĠFen",
        "or"
      ],
      [
        "ou",
        "nd"
      ],
      [
        "ĠNor",
        "a"
      ],
      [
        "ĠTar",
        "en"
      ],
      [
        "b",
        "b"
      ],
      [
        "r",
        "om"
      ],
      [
        "Ġf",
        "rom"
      ],
      [
        "Ġrai",
        "d"
      ],
      [
        "u",
        "l"
      ],
      [
        "ĠTar",
        "ow"
      ],
      [
        "ĠFen",
        "a"
      ],
      [
        "ĠFen",
        "il"
      ],
      [
        "ĠBel",
        "um"
      ],
      [
        "ĠNor",
        "or"
      ],
      [
        "Ġt",
        "r"
      ],
      [
        "e",
        "ar"
      ],
      [
        "ĠNor",
        "en"
      ],
      [
        "ĠBel",
        "ash"
      ],
      [
        "ĠBel",
        "ow"
      ],
      [
        "o",
        "c"
      ],
      [
        "ĠBel",
        "or"
      ],
      [
        "ĠNor",
        "ow"
      ],
      [
        "Ġ",
        "W"
      ],
      [
        "u",
        "t"
      ],
      [
        "Ġ",
        "S"
      ],
      [
        "ĠTar",
        "il"
      ],
      [
        "ĠTar",
        "um"
      ],
      [
        "ĠBel",
        "a"
      ],
      [
        "or",
        "t"
      ],
      [
        "ĠBel",
        "il"
      ],
      [
        "ĠFen",
        "ash"
      ],
      [
        "ĠFen",
        "en"
      ],
      [
        "ĠTar",
        "or"
      ],
      [
        "Ġ",
        "th"
      ],
      [
        "ĠFen",
        "ow"
      ],
      [
        "d",
        "er"
      ],
      [
        "Ġf",
        "o"
      ],
      [
        "Ġne",
        "w"
      ],
      [
        "Ġi",
        "ts"
      ],
      [
        "o",
        "p"
      ],
      [
        "Ġp",
        "e"
      ],
      [
        "ol",
        "s"
      ],
      [
        "Ġr",
        "i"
      ],
      [
        "ĠNor",
        "eth"
      ],
      [
        "Ġcr",
        "own"
      ],
      [
        "ĠBel",
        "eth"
      ],
      [
        "Ġa",
        "c"
      ],
      [
        "ĠC",
        "our"
      ],
      [
        "g",
        "e"
      ],
      [
        "ĠFen",
        "eth"
      ],
      [
        "ĠTar",
        "eth"
      ],
      [
        "u",
        "e"
      ],
      [
        "t",
        "o"
      ],
      [
        "Ġin",
        "to"
      ],
      [
        "ee",
        "k"
      ],
      [
        "c",
        "h"
      ],
      [
        "Ġgo",
        "ing"
      ],
      [
        "Ġcour",
        "t"
      ],
      [
        "Ġsh",
        "ort"
      ],
      [
        "Ġb",
        "y"
      ],
      [
        "u",
        "n"
      ],
      [
        "a",
        "k"
      ],
      [
        "u",
        "p"
      ],
      [
        "r",
        "ou"
      ],
      [
        "c",
        "ord"
      ],
      [
        "Ġr",
        "ound"
      ],
      [
        "Ġw",
        "ord"
      ],
      [
        "Ġac",
        "cord"
      ],
      [
        "Ġaccord",
        "ing"
      ],
      [
        "or",
        "e"
      ],
      [
        "bl",
        "in"
      ],
      [
        "p",
        "t"
      ],
      [
        "u",
        "bl"
      ],
      [
        "Ġp",
        "ubl"
      ],
      [
        "Ġwork",
        "ing"
      ],
      [
        "bb",
        "ot"
      ],
      [
        "Ġpubl",
        "ic"
      ],
      [
        "Ġa",
        "n"
      ],
      [
        "Ġr",
        "el"
      ],
      [
        "Ġ",
        "ol"
      ],
      [
        "Ġr",
        "es"
      ],
      [
        "Ġr",
        "um"
      ],
      [
        "Ġtr",
        "ue"
      ],
      [
        "Ġrum",
        "our"
      ],
      [
        "Ġf",
        "ood"
      ],
      [
        "Ġto",
        "ols"
      ],
      [
        "Ġw",
        "h"
      ],
      [
        "e",
        "c"
      ],
      [
        "Ġstor",
        "y"
      ],
      [
        "Ġri",
        "ght"
      ],
      [
        "Ġgo",
        "blin"
      ],
      [
        "a",
        "u"
      ],
      [
        "i",
        "th"
      ],
      [
        "Ġw",
        "ith"
      ],
      [
        "er",
        "d"
      ],
      [
        "Ġc",
        "h"
      ],
      [
        "Ġh",
        "erd"
      ],
      [
        "j",
        "oin"
      ],
      [
        "Ġ",
        "join"
      ],
      [
        "Ġl",
        "a"
      ],
      [
        "Ġw",
        "ood"
      ],
      [
        "Ġs",
        "o"
      ],
      [
        "Ġs",
        "ay"
      ],
      [
        "op",
        "le"
      ],
      [
        "Ġpe",
        "ople"
      ],
      [
        "Ġl",
        "ost"
      ],
      [
        "Ġd",
        "el"
      ],
      [
        "Ġs",
        "l"
      ],
      [
        "Ġroad",
        "s"
      ],
      [
        "i",
        "s"
      ],
      [
        "a",
        "in"
      ],
      [
        "B",
        "el"
      ],
      [
        "Ġraid",
        "ed"
      ],
      [
        "T",
        "ar"
      ],
      [
        "t",
        "ed"
      ],
      [
        "Ġf",
        "ell"
      ],
      [
        "Ġth",
        "rou"
      ],
      [
        "Ġthrou",
        "gh"
      ],
      [
        "Ġw",
        "ar"
      ],
      [
        "Ġc",
        "l"
      ],
      [
        "ĠB",
        "oo"
      ],
      [
        "ĠBoo",
        "k"
      ],
      [
        "i",
        "d"
      ],
      [
        "u",
        "nd"
      ],
      [
        "Ġs",
        "p"
      ],
      [
        "e",
        "y"
      ],
      [
        "Ġ",
        "e"
      ],
      [
        "ow",
        "ard"
      ],
      [
        "Ġt",
        "oward"
      ],
      [
        "s",
        "ing"
      ],
      [
        "r",
        "n"
      ],
      [
        "ĠC",
        "up"
      ],
      [
        "Ġst",
        "one"
      ],
      [
        "r",
        "own"
      ],
      [
        "ĠC",
        "rown"
      ],
      [
        "Ġa",
        "d"
      ],
      [
        "e",
        "the"
      ],
      [
        "s",
        "es"
      ],
      [
        "ou",
        "t"
      ],
      [
        "d",
        "s"
      ],
      [
        "al",
        "ves"
      ],
      [
        "ad",
        "e"
      ],
      [
        "ic",
        "e"
      ],
      [
        "y",
        "ear"
      ],
      [
        "Ġ",
        "year"
      ],
      [
        "Ġb",
        "ec"
      ],
      [
        "l",
        "oc"
      ],
      [
        "Ġf",
        "loc"
      ],
      [
        "Ġfloc",
        "k"
      ],
      [
        "l",
        "y"
      ],
      [
        "Ġcour",
        "ts"
      ],
      [
        "Ġm",
        "ade"
      ],
      [
        "Ġc",
        "alves"
      ],
      [
        "ĠCour",
        "t"
      ],
      [
        "ĠW",
        "ood"
      ],
      [
        "e",
        "f"
      ],
      [
        "er",
        "v"
      ],
      [
        "gh",
        "ter"
      ],
      [
        "au",
        "ghter"
      ],
      [
        "Ġsl",
        "aughter"
      ],
      [
        "a",
        "ce"
      ],
      [
        "c",
        "ri"
      ],
      [
        "i",
        "um"
      ],
      [
        "k",
        "ee"
      ],
      [
        "o",
        "y"
      ],
      [
        "or",
        "ium"
      ],
      [
        "ing",
        "s"
      ],
      [
        "Ġwork",
        "s"
      ],
      [
        "ul",
        "t"
      ],
      [
        "ĠS",
        "cri"
      ],
      [
        "Ġfo",
        "al"
      ],
      [
        "pt",
        "orium"
      ],
      [
        "Ġan",
        "oin"
      ],
      [
        "kee",
        "p"
      ],
      [
        "ĠScri",
        "ptorium"
      ],
      [
        "at",
        "ion"
      ],
      [
        "Ġrel",
        "ation"
      ],
      [
        "Ġrelation",
        "s"
      ],
      [
        "k",
        "e"
      ],
      [
        "Ġol",
        "d"
      ],
      [
        "a",
        "ch"
      ],
      [
        "ed",
        "s"
      ],
      [
        "Ġre",
        "ach"
      ],
      [
        "Ġrai",
        "sed"
      ],
      [
        "ay",
        "s"
      ],
      [
        "Ġreach",
        "es"
      ],
      [
        "ed",
        "ed"
      ],
      [
        "ĠA",
        "bbot"
      ],
      [
        "il",
        "d"
      ],
      [
        "Ġg",
        "a"
      ],
      [
        "Ġl",
        "ore"
      ],
      [
        "Ġrepair",
        "s"
      ],
      [
        "en",
        "t"
      ],
      [
        "Ġs",
        "he"
      ],
      [
        "Ġ",
        "he"
      ],
      [
        "or",
        "n"
      ],
      [
        "Ġcl",
        "os"
      ],
      [
        "d",
        "der"
      ],
      [
        "Ġl",
        "oc"
      ],
      [
        "Ġfo",
        "dder"
      ],
      [
        "Ġloc",
        "al"
      ],
      [
        "he",
        "at"
      ],
      [
        "um",
        "fell"
      ],
      [
        "il",
        "gate"
      ],
      [
        "ow",
        "fell"
      ],
      [
        "um",
        "mere"
      ],
      [
        "il",
        "den"
      ],
      [
        "en",
        "mere"
      ],
      [
        "a",
        "wick"
      ],
      [
        "a",
        "moor"
      ],
      [
        "en",
        "wick"
      ],
      [
        "ow",
        "gate"
      ],
      [
        "ethe",
        "th"
      ],
      [
        "t",
        "one"
      ],
      [
        "or",
        "holt"
      ],
      [
        "ad",
        "en"
      ],
      [
        "en",
        "ford"
      ],
      [
        "ow",
        "wick"
      ],
      [
        "en",
        "holt"
      ],
      [
        "ow",
        "holt"
      ],
      [
        "il",
        "holt"
      ],
      [
        "or",
        "moor"
      ],
      [
        "um",
        "gate"
      ],
      [
        "um",
        "ford"
      ],
      [
        "ow",
        "mere"
      ],
      [
        "en",
        "den"
      ],
      [
        "ow",
        "moor"
      ],
      [
        "ow",
        "den"
      ],
      [
        "il",
        "wick"
      ],
      [
        "or",
        "mere"
      ],
      [
        "il",
        "ford"
      ],
      [
        "a",
        "fell"
      ],
      [
        "ash",
        "gate"
      ],
      [
        "Ġf",
        "und"
      ],
      [
        "ou",
        "ght"
      ],
      [
        "le",
        "c"
      ],
      [
        "o",
        "ard"
      ],
      [
        "ash",
        "fell"
      ],
      [
        "Ġb",
        "r"
      ],
      [
        "ag",
        "ate"
      ],
      [
        "Ġh",
        "oard"
      ],
      [
        "or",
        "ford"
      ],
      [
        "il",
        "moor"
      ],
      [
        "ash",
        "moor"
      ],
      [
        "ash",
        "den"
      ],
      [
        "or",
        "wick"
      ],
      [
        "ash",
        "holt"
      ],
      [
        "en",
        "gate"
      ],
      [
        "ash",
        "mere"
      ],
      [
        "a",
        "holt"
      ],
      [
        "ash",
        "ford"
      ],
      [
        "c",
        "ce"
      ],
      [
        "u",
        "cce"
      ],
      [
        "or",
        "gate"
      ],
      [
        "Ġs",
        "ucce"
      ],
      [
        "um",
        "holt"
      ],
      [
        "um",
        "wick"
      ],
      [
        "um",
        "den"
      ],
      [
        "Ġres",
        "um"
      ],
      [
        "a",
        "mere"
      ],
      [
        "ow",
        "ford"
      ],
      [
        "il",
        "mere"
      ],
      [
        "il",
        "fell"
      ],
      [
        "or",
        "fell"
      ],
      [
        "Ġr",
        "u"
      ],
      [
        "ash",
        "wick"
      ],
      [
        "en",
        "fell"
      ],
      [
        "en",
        "moor"
      ],
      [
        "um",
        "moor"
      ],
      [
        "s",
        "e"
      ],
      [
        "a",
        "ford"
      ],
      [
        "ord",
        "en"
      ],
      [
        "f",
        "e"
      ],
      [
        "Ġw",
        "eek"
      ],
      [
        "Ġt",
        "ak"
      ],
      [
        "Ġstor",
        "e"
      ],
      [
        "Ġraid",
        "s"
      ],
      [
        "ĠS",
        "tone"
      ],
      [
        "Ġtak",
        "es"
      ],
      [
        "in",
        "ds"
      ],
      [
        "Ġb",
        "inds"
      ],
      [
        "Ġcrown",
        "s"
      ],
      [
        "l",
        "s"
      ],
      [
        "eth",
        "fell"
      ],
      [
        "o",
        "k"
      ],
      [
        "Ġto",
        "ok"
      ],
      [
        "eth",
        "mere"
      ],
      [
        "v",
        "er"
      ],
      [
        "Ġw",
        "ent"
      ],
      [
        "Ġc",
        "ut"
      ],
      [
        "eth",
        "holt"
      ],
      [
        "eth",
        "ford"
      ],
      [
        "eth",
        "wick"
      ],
      [
        "Ġp",
        "on"
      ],
      [
        "eth",
        "moor"
      ],
      [
        "n",
        "ing"
      ],
      [
        "Ġwar",
        "ning"
      ],
      [
        "Ġc",
        "on"
      ],
      [
        "t",
        "ing"
      ],
      [
        "om",
        "e"
      ],
      [
        "l",
        "es"
      ],
      [
        "o",
        "ol"
      ],
      [
        "p",
        "ion"
      ],
      [
        "Ġc",
        "ol"
      ],
      [
        "Ġs",
        "eek"
      ],
      [
        "am",
        "pion"
      ],
      [
        "Ġbu",
        "ild"
      ],
      [
        "Ġch",
        "ampion"
      ],
      [
        "id",
        "e"
      ],
      [
        "i",
        "m"
      ],
      [
        "n",
        "ey"
      ],
      [
        "t",
        "u"
      ],
      [
        "Ġc",
        "ou"
      ],
      [
        "Ġre",
        "tu"
      ],
      [
        "Ġg",
        "r"
      ],
      [
        "Ġch",
        "im"
      ],
      [
        "Ġcou",
        "n"
      ],
      [
        "Ġretu",
        "rn"
      ],
      [
        "Ġchim",
        "ney"
      ],
      [
        "s",
        "w"
      ],
      [
        "eth",
        "gate"
      ],
      [
        "Ġ",
        "3"
      ],
      [
        "Ġ",
        "2"
      ],
      [
        "eth",
        "den"
      ],
      [
        "Ġstor",
        "es"
      ],
      [
        "d",
        "ed"
      ],
      [
        "Ġad",
        "ded"
      ],
      [
        "Ġu",
        "sed"
      ],
      [
        "Ġstor",
        "ed"
      ],
      [
        "Ġm",
        "ak"
      ],
      [
        "Ġdel",
        "ay"
      ],
      [
        "one",
        "y"
      ],
      [
        "Ġrepair",
        "ed"
      ],
      [
        "Ġjoin",
        "ed"
      ],
      [
        "Ġu",
        "p"
      ],
      [
        "l",
        "i"
      ],
      [
        "e",
        "p"
      ],
      [
        "Ġwh",
        "en"
      ],
      [
        "Ġa",
        "bbot"
      ],
      [
        "Ġb",
        "re"
      ],
      [
        "Ġw",
        "ere"
      ],
      [
        "i",
        "er"
      ],
      [
        "w",
        "o"
      ],
      [
        "ar",
        "s"
      ],
      [
        "Ġr",
        "un"
      ],
      [
        "Ġt",
        "wo"
      ],
      [
        "Ġl",
        "e"
      ],
      [
        "Ġn",
        "ow"
      ],
      [
        "Ġrai",
        "ses"
      ],
      [
        "Ġcour",
        "ier"
      ],
      [
        "ĠW",
        "heat"
      ],
      [
        "Ġrun",
        "s"
      ],
      [
        "Ġu",
        "n"
      ],
      [
        "Ġf",
        "al"
      ],
      [
        "Ġfal",
        "ls"
      ],
      [
        "Ġ",
        "R"
      ],
      [
        "Ġslaughter",
        "ed"
      ],
      [
        "Ġm",
        "oney"
      ],
      [
        "c",
        "k"
      ],
      [
        "Ġla",
        "ck"
      ],
      [
        "ar",
        "ed"
      ],
      [
        "Ġ",
        "6"
      ],
      [
        "Ġclos",
        "ed"
      ],
      [
        "Ġs",
        "ome"
      ],
      [
        "am",
        "e"
      ],
      [
        "Ġ1",
        "5"
      ],
      [
        "Ġ",
        "7"
      ],
      [
        "Ġ1",
        "4"
      ],
      [
        "Ġne",
        "eded"
      ],
      [
        "Ġ1",
        "8"
      ],
      [
        "Ġwh",
        "ere"
      ],
      [
        "a",
        "il"
      ],
      [
        "a",
        "nd"
      ],
      [
        "c",
        "il"
      ],
      [
        "e",
        "al"
      ],
      [
        "f",
        "ul"
      ],
      [
        "g",
        "er"
      ],
      [
        "h",
        "keep"
      ],
      [
        "i",
        "r"
      ],
      [
        "m",
        "pt"
      ],
      [
        "r",
        "ing"
      ],
      [
        "s",
        "t"
      ],
      [
        "s",
        "hkeep"
      ],
      [
        "t",
        "w"
      ],
      [
        "t",
        "en"
      ],
      [
        "t",
        "on"
      ],
      [
        "t",
        "le"
      ],
      [
        "w",
        "ful"
      ],
      [
        "en",
        "ce"
      ],
      [
        "ar",
        "ves"
      ],
      [
        "ar",
        "ge"
      ],
      [
        "Ġr",
        "oo"
      ],
      [
        "Ġr",
        "oy"
      ],
      [
        "Ġc",
        "at"
      ],
      [
        "Ġc",
        "le"
      ],
      [
        "Ġc",
        "ult"
      ],
      [
        "as",
        "t"
      ],
      [
        "um",
        "bl"
      ],
      [
        "il",
        "ence"
      ],
      [
        "Ġs",
        "eal"
      ],
      [
        "Ġs",
        "ilence"
      ],
      [
        "Ġt",
        "arge"
      ],
      [
        "Ġb",
        "ee"
      ],
      [
        "Ġb",
        "les"
      ],
      [
        "Ġb",
        "ir"
      ],
      [
        "he",
        "ad"
      ],
      [
        "Ġl",
        "oad"
      ],
      [
        "Ġl",
        "ast"
      ],
      [
        "Ġd",
        "un"
      ],
      [
        "Ġp",
        "age"
      ],
      [
        "Ġp",
        "re"
      ],
      [
        "ood",
        "s"
      ],
      [
        "Ġn",
        "am"
      ],
      [
        "Ġh",
        "ost"
      ],
      [
        "Ġh",
        "id"
      ],
      [
        "Ġh",
        "arves"
      ],
      [
        "Ġm",
        "ut"
      ],
      [
        "Ġne",
        "tw"
      ],
      [
        "Ġdr",
        "ought"
      ],
      [
        "Ġcr",
        "os"
      ],
      [
        "Ġcr",
        "umbl"
      ],
      [
        "ĠA",
        "shkeep"
      ],
      [
        "bb",
        "ey"
      ],
      [
        "Ġtr",
        "ail"
      ],
      [
        "ge",
        "on"
      ],
      [
        "un",
        "ger"
      ],
      [
        "Ġres",
        "erv"
      ],
      [
        "Ġwith",
        "out"
      ],
      [
        "Ġla",
        "wful"
      ],
      [
        "Ġdel",
        "i"
      ],
      [
        "Ġsp",
        "ace"
      ],
      [
        "Ġsp",
        "ring"
      ],
      [
        "Ġe",
        "mpt"
      ],
      [
        "erv",
        "ice"
      ],
      [
        "Ġfoal",
        "s"
      ],
      [
        "Ġlocal",
        "ly"
      ],
      [
        "lec",
        "t"
      ],
      [
        "Ġbr",
        "ood"
      ],
      [
        "Ġru",
        "in"
      ],
      [
        "Ġcol",
        "lect"
      ],
      [
        "Ġseek",
        "ing"
      ],
      [
        "Ġbuild",
        "ings"
      ],
      [
        "Ġcoun",
        "cil"
      ],
      [
        "ten",
        "der"
      ],
      [
        "Ġroo",
        "st"
      ],
      [
        "Ġroy",
        "al"
      ],
      [
        "Ġcat",
        "tle"
      ],
      [
        "Ġtarge",
        "t"
      ],
      [
        "Ġbee",
        "f"
      ],
      [
        "Ġbles",
        "sing"
      ],
      [
        "Ġbir",
        "th"
      ],
      [
        "Ġdun",
        "geon"
      ],
      [
        "Ġpre",
        "tender"
      ],
      [
        "Ġhid",
        "den"
      ],
      [
        "Ġharves",
        "t"
      ],
      [
        "Ġmut",
        "ton"
      ],
      [
        "Ġnetw",
        "ork"
      ],
      [
        "ĠAshkeep",
        "ers"
      ],
      [
        "Ġtrail",
        "head"
      ],
      [
        "Ġreserv",
        "e"
      ],
      [
        "Ġempt",
        "y"
      ],
      [
        "a",
        "p"
      ],
      [
        "b",
        "s"
      ],
      [
        "d",
        "ge"
      ],
      [
        "i",
        "p"
      ],
      [
        "i",
        "ed"
      ],
      [
        "i",
        "re"
      ],
      [
        "i",
        "ef"
      ],
      [
        "l",
        "ings"
      ],
      [
        "l",
        "li"
      ],
      [
        "m",
        "en"
      ],
      [
        "v",
        "oy"
      ],
      [
        "Ġ",
        "keep"
      ],
      [
        "ar",
        "ke"
      ],
      [
        "Ġa",
        "lli"
      ],
      [
        "Ġr",
        "ol"
      ],
      [
        "il",
        "y"
      ],
      [
        "Ġw",
        "ai"
      ],
      [
        "Ġt",
        "re"
      ],
      [
        "Ġf",
        "am"
      ],
      [
        "Ġf",
        "ire"
      ],
      [
        "at",
        "y"
      ],
      [
        "Ġb",
        "ri"
      ],
      [
        "Ġl",
        "i"
      ],
      [
        "Ġd",
        "am"
      ],
      [
        "Ġd",
        "ied"
      ],
      [
        "Ġre",
        "op"
      ],
      [
        "Ġn",
        "ot"
      ],
      [
        "Ġm",
        "arke"
      ],
      [
        "an",
        "ce"
      ],
      [
        "am",
        "bs"
      ],
      [
        "Ġsh",
        "ip"
      ],
      [
        "Ġbu",
        "y"
      ],
      [
        "Ġpe",
        "ace"
      ],
      [
        "Ġrel",
        "ief"
      ],
      [
        "Ġol",
        "der"
      ],
      [
        "Ġad",
        "ult"
      ],
      [
        "Ġyear",
        "lings"
      ],
      [
        "Ġanoin",
        "ting"
      ],
      [
        "Ġcon",
        "voy"
      ],
      [
        "Ġgr",
        "ain"
      ],
      [
        "ap",
        "er"
      ],
      [
        "men",
        "ts"
      ],
      [
        "Ġalli",
        "ance"
      ],
      [
        "Ġrol",
        "l"
      ],
      [
        "Ġtre",
        "aty"
      ],
      [
        "Ġfam",
        "ily"
      ],
      [
        "Ġbri",
        "dge"
      ],
      [
        "Ġdam",
        "age"
      ],
      [
        "Ġreop",
        "en"
      ],
      [
        "Ġnot",
        "ice"
      ],
      [
        "Ġmarke",
        "t"
      ],
      [
        "Ġship",
        "ments"
      ],
      [
        "b",
        "ear"
      ],
      [
        "i",
        "the"
      ],
      [
        "Ġ",
        "4"
      ],
      [
        "Ġr",
        "ul"
      ],
      [
        "the",
        "r"
      ],
      [
        "Ġt",
        "ithe"
      ],
      [
        "ad",
        "ers"
      ],
      [
        "mo",
        "ke"
      ],
      [
        "Ġre",
        "aders"
      ],
      [
        "Ġbu",
        "rn"
      ],
      [
        "is",
        "sing"
      ],
      [
        "Ġga",
        "ther"
      ],
      [
        "bear",
        "ers"
      ],
      [
        "Ġrul",
        "er"
      ],
      [
        "e",
        "ad"
      ],
      [
        "Ġd",
        "ead"
      ],
      [
        "Ġas",
        "h"
      ],
      [
        "sw",
        "orn"
      ],
      [
        "Ġ",
        "8"
      ],
      [
        "Ġ",
        "5"
      ],
      [
        "Ġ1",
        "0"
      ],
      [
        "f",
        "or"
      ],
      [
        "as",
        "on"
      ],
      [
        "Ġ1",
        "3"
      ],
      [
        "Ġ1",
        "7"
      ],
      [
        "Ġ",
        "9"
      ],
      [
        "Ġ1",
        "6"
      ],
      [
        "e",
        "t"
      ],
      [
        "Ġ1",
        "1"
      ],
      [
        "Ġ1",
        "2"
      ],
      [
        "Ġ1",
        "9"
      ],
      [
        "Ġmak",
        "ing"
      ],
      [
        "Ġsucce",
        "eded"
      ],
      [
        "Ġfund",
        "ing"
      ],
      [
        "Ġresum",
        "ed"
      ],
      [
        "s",
        "ide"
      ],
      [
        "v",
        "e"
      ],
      [
        "Ġg",
        "oods"
      ],
      [
        "Ġga",
        "ve"
      ],
      [
        "Ġdelay",
        "ed"
      ],
      [
        "a",
        "b"
      ],
      [
        "Ġst",
        "ab"
      ],
      [
        "Ġyear",
        "s"
      ],
      [
        "Ġstab",
        "le"
      ],
      [
        "in",
        "is"
      ],
      [
        "Ġf",
        "inis"
      ],
      [
        "Ġm",
        "issing"
      ],
      [
        "Ġshe",
        "ep"
      ],
      [
        "Ġfinis",
        "h"
      ],
      [
        "Ġb",
        "orn"
      ],
      [
        "ĠC",
        "ou"
      ],
      [
        "Ġs",
        "ervice"
      ],
      [
        "Ġh",
        "and"
      ],
      [
        "q",
        "u"
      ],
      [
        "Ġ",
        "qu"
      ],
      [
        "Ġpon",
        "y"
      ],
      [
        "Ġqu",
        "ar"
      ],
      [
        "Ġ",
        "on"
      ],
      [
        "in",
        "for"
      ],
      [
        "Ġl",
        "ambs"
      ],
      [
        "Ġre",
        "infor"
      ],
      [
        "au",
        "se"
      ],
      [
        "Ġbec",
        "ause"
      ],
      [
        "Ġli",
        "fe"
      ],
      [
        "Ġp",
        "as"
      ],
      [
        "e",
        "w"
      ],
      [
        "Ġs",
        "up"
      ],
      [
        "Ġsup",
        "p"
      ],
      [
        "M",
        "e"
      ],
      [
        "U",
        "n"
      ],
      [
        "f",
        "und"
      ],
      [
        "i",
        "t"
      ],
      [
        "o",
        "nd"
      ],
      [
        "o",
        "ols"
      ],
      [
        "r",
        "y"
      ],
      [
        "u",
        "ts"
      ],
      [
        "w",
        "at"
      ],
      [
        "Ġ",
        "G"
      ],
      [
        "Ġ",
        "en"
      ],
      [
        "Ġ",
        "one"
      ],
      [
        "Ġ",
        "Me"
      ],
      [
        "Ġ",
        "Un"
      ],
      [
        "en",
        "ds"
      ],
      [
        "ar",
        "t"
      ],
      [
        "in",
        "ter"
      ],
      [
        "Ġc",
        "ond"
      ],
      [
        "Ġc",
        "uts"
      ],
      [
        "ĠT",
        "ools"
      ],
      [
        "Ġw",
        "inter"
      ],
      [
        "Ġd",
        "ays"
      ],
      [
        "om",
        "es"
      ],
      [
        "Ġh",
        "as"
      ],
      [
        "Ġm",
        "il"
      ],
      [
        "Ġm",
        "ason"
      ],
      [
        "ter",
        "s"
      ],
      [
        "an",
        "t"
      ],
      [
        "Ġu",
        "ses"
      ],
      [
        "Ġu",
        "se"
      ],
      [
        "Ġbu",
        "nd"
      ],
      [
        "ch",
        "ed"
      ],
      [
        "Ġjoin",
        "s"
      ],
      [
        "Ġbec",
        "omes"
      ],
      [
        "Ġslaughter",
        "s"
      ],
      [
        "Ġsucce",
        "eds"
      ],
      [
        "Ġresum",
        "es"
      ],
      [
        "Ġweek",
        "s"
      ],
      [
        "Ġbre",
        "eds"
      ],
      [
        "Ġun",
        "wat"
      ],
      [
        "fund",
        "ed"
      ],
      [
        "it",
        "ion"
      ],
      [
        "Ġen",
        "ters"
      ],
      [
        "ĠMe",
        "at"
      ],
      [
        "ĠUn",
        "funded"
      ],
      [
        "Ġcond",
        "ition"
      ],
      [
        "Ġunwat",
        "ched"
      ],
      [
        "m",
        "ain"
      ],
      [
        "Ġre",
        "main"
      ],
      [
        "Ġreturn",
        "s"
      ],
      [
        "a",
        "w"
      ],
      [
        "f",
        "o"
      ],
      [
        "h",
        "o"
      ],
      [
        "Ġbec",
        "ame"
      ],
      [
        "Ġr",
        "an"
      ],
      [
        "Ġp",
        "ut"
      ],
      [
        "Ġl",
        "ef"
      ],
      [
        "Ġlef",
        "t"
      ],
      [
        "Ġb",
        "rou"
      ],
      [
        "Ġbrou",
        "ght"
      ],
      [
        "g",
        "lec"
      ],
      [
        "i",
        "es"
      ],
      [
        "Ġ",
        "out"
      ],
      [
        "Ġs",
        "ought"
      ],
      [
        "Ġw",
        "ore"
      ],
      [
        "nd",
        "er"
      ],
      [
        "Ġl",
        "ai"
      ],
      [
        "Ġcar",
        "e"
      ],
      [
        "Ġne",
        "glec"
      ],
      [
        "Ġu",
        "nder"
      ],
      [
        "ut",
        "ch"
      ],
      [
        "Ġla",
        "nd"
      ],
      [
        "Ġcl",
        "utch"
      ],
      [
        "Ġanoin",
        "ted"
      ],
      [
        "Ġhe",
        "ard"
      ],
      [
        "ver",
        "ed"
      ],
      [
        "Ġpon",
        "ies"
      ],
      [
        "Ġreturn",
        "ed"
      ],
      [
        "Ġcle",
        "ared"
      ],
      [
        "Ġseal",
        "ed"
      ],
      [
        "Ġnam",
        "ed"
      ],
      [
        "Ġcros",
        "sed"
      ],
      [
        "Ġcrumbl",
        "ed"
      ],
      [
        "Ġdeli",
        "vered"
      ],
      [
        "Ġlai",
        "d"
      ],
      [
        "Ġneglec",
        "ted"
      ],
      [
        "b",
        "out"
      ],
      [
        "m",
        "ed"
      ],
      [
        "p",
        "ec"
      ],
      [
        "x",
        "pec"
      ],
      [
        "Ġa",
        "bout"
      ],
      [
        "Ġw",
        "heat"
      ],
      [
        "Ġfor",
        "med"
      ],
      [
        "Ġe",
        "xpec"
      ],
      [
        "Ġbr",
        "ed"
      ],
      [
        "Ġkeep",
        "er"
      ],
      [
        "Ġreopen",
        "ed"
      ],
      [
        "Ġgather",
        "ed"
      ],
      [
        "Ġexpec",
        "ted"
      ],
      [
        "Ġf",
        "ed"
      ],
      [
        "Ġb",
        "ound"
      ],
      [
        "os",
        "e"
      ],
      [
        "A",
        "fter"
      ],
      [
        "re",
        "ad"
      ],
      [
        "Ġg",
        "ain"
      ],
      [
        "Ġgain",
        "ed"
      ],
      [
        "Ġth",
        "at"
      ],
      [
        "P",
        "aper"
      ],
      [
        "Ġcr",
        "ew"
      ],
      [
        "Ġcrew",
        "s"
      ],
      [
        "Ġsome",
        "one"
      ],
      [
        "e",
        "h"
      ],
      [
        "in",
        "d"
      ],
      [
        "Ġb",
        "eh"
      ],
      [
        "Ġru",
        "le"
      ],
      [
        "Ġbeh",
        "ind"
      ],
      [
        "Ġh",
        "unger"
      ],
      [
        "Ġa",
        "bbey"
      ],
      [
        "or",
        "m"
      ],
      [
        "ear",
        "s"
      ],
      [
        "Ġroads",
        "ide"
      ],
      [
        "g",
        "a"
      ],
      [
        "ow",
        "m"
      ],
      [
        "w",
        "i"
      ],
      [
        "um",
        "m"
      ],
      [
        "ag",
        "s"
      ],
      [
        "ĠR",
        "ags"
      ],
      [
        "il",
        "m"
      ],
      [
        "en",
        "f"
      ],
      [
        "oad",
        "side"
      ],
      [
        "en",
        "m"
      ],
      [
        "at",
        "er"
      ],
      [
        "Ġl",
        "ater"
      ],
      [
        "Ġwh",
        "at"
      ],
      [
        "w",
        "ard"
      ],
      [
        "Ġo",
        "ver"
      ],
      [
        "Ġfor",
        "ward"
      ],
      [
        "Ġburn",
        "ed"
      ],
      [
        "H",
        "unger"
      ],
      [
        "um",
        "f"
      ],
      [
        "Ġrep",
        "ort"
      ],
      [
        "Ġfinish",
        "ed"
      ],
      [
        "Ġreport",
        "ed"
      ],
      [
        "Ġ3",
        "3"
      ],
      [
        "ow",
        "er"
      ],
      [
        "Ġd",
        "own"
      ],
      [
        "Ġp",
        "ower"
      ],
      [
        "ĠNor",
        "etheth"
      ],
      [
        "Ġw",
        "ool"
      ],
      [
        "Ġshe",
        "ared"
      ],
      [
        "Ġr",
        "ose"
      ],
      [
        "il",
        "f"
      ],
      [
        "ad",
        "ed"
      ],
      [
        "Ġhe",
        "aded"
      ],
      [
        "ri",
        "ed"
      ],
      [
        "Ġquar",
        "ried"
      ],
      [
        "Ġp",
        "aper"
      ],
      [
        "Ġdelay",
        "ing"
      ],
      [
        "Ġt",
        "ri"
      ],
      [
        "Ġp",
        "ost"
      ],
      [
        "Ġtri",
        "p"
      ],
      [
        "Ġpost",
        "ed"
      ],
      [
        "c",
        "ed"
      ],
      [
        "Ġs",
        "moke"
      ],
      [
        "Ġwai",
        "ted"
      ],
      [
        "Ġreinfor",
        "ced"
      ],
      [
        "C",
        "our"
      ],
      [
        "Cour",
        "t"
      ],
      [
        "t",
        "in"
      ],
      [
        "u",
        "ed"
      ],
      [
        "Ġs",
        "le"
      ],
      [
        "Ġcon",
        "tin"
      ],
      [
        "Ġsle",
        "w"
      ],
      [
        "Ġcontin",
        "ued"
      ],
      [
        "Ġfund",
        "ed"
      ],
      [
        "Ġbre",
        "ad"
      ],
      [
        "ĠTar",
        "etheth"
      ],
      [
        "v",
        "ing"
      ],
      [
        "Ġpas",
        "sed"
      ],
      [
        "ĠBel",
        "etheth"
      ],
      [
        "I",
        "ts"
      ],
      [
        "a",
        "ves"
      ],
      [
        "c",
        "al"
      ],
      [
        "c",
        "ends"
      ],
      [
        "d",
        "es"
      ],
      [
        "e",
        "m"
      ],
      [
        "g",
        "g"
      ],
      [
        "g",
        "al"
      ],
      [
        "i",
        "ves"
      ],
      [
        "l",
        "ot"
      ],
      [
        "m",
        "on"
      ],
      [
        "n",
        "ot"
      ],
      [
        "p",
        "ts"
      ],
      [
        "r",
        "es"
      ],
      [
        "r",
        "ee"
      ],
      [
        "s",
        "u"
      ],
      [
        "s",
        "cal"
      ],
      [
        "t",
        "ore"
      ],
      [
        "t",
        "ant"
      ],
      [
        "v",
        "el"
      ],
      [
        "v",
        "ers"
      ],
      [
        "w",
        "ent"
      ],
      [
        "Ġ",
        "mo"
      ],
      [
        "Ġ",
        "Paper"
      ],
      [
        "Ġ",
        "Its"
      ],
      [
        "Ġa",
        "ge"
      ],
      [
        "er",
        "y"
      ],
      [
        "Ġc",
        "ow"
      ],
      [
        "Ġc",
        "an"
      ],
      [
        "ĠT",
        "ool"
      ],
      [
        "ĠT",
        "went"
      ],
      [
        "ĠB",
        "read"
      ],
      [
        "Ġw",
        "hol"
      ],
      [
        "Ġw",
        "ant"
      ],
      [
        "Ġw",
        "ears"
      ],
      [
        "ol",
        "d"
      ],
      [
        "es",
        "cends"
      ],
      [
        "Ġb",
        "ak"
      ],
      [
        "Ġl",
        "os"
      ],
      [
        "Ġl",
        "ays"
      ],
      [
        "Ġd",
        "ay"
      ],
      [
        "Ġd",
        "ue"
      ],
      [
        "Ġd",
        "is"
      ],
      [
        "Ġd",
        "ef"
      ],
      [
        "Ġd",
        "escends"
      ],
      [
        "Ġin",
        "side"
      ],
      [
        "Ġp",
        "os"
      ],
      [
        "Ġp",
        "art"
      ],
      [
        "Ġp",
        "res"
      ],
      [
        "Ġre",
        "al"
      ],
      [
        "Ġg",
        "ives"
      ],
      [
        "ce",
        "pts"
      ],
      [
        "Ġcom",
        "mon"
      ],
      [
        "ĠW",
        "eek"
      ],
      [
        "ĠW",
        "ool"
      ],
      [
        "Ġth",
        "is"
      ],
      [
        "Ġth",
        "ree"
      ],
      [
        "Ġri",
        "ses"
      ],
      [
        "Ġri",
        "des"
      ],
      [
        "Ġac",
        "cepts"
      ],
      [
        "Ġan",
        "sw"
      ],
      [
        "Ġres",
        "tore"
      ],
      [
        "Ġwood",
        "lot"
      ],
      [
        "Ġdel",
        "ays"
      ],
      [
        "Ġsp",
        "ends"
      ],
      [
        "Ġe",
        "ver"
      ],
      [
        "Ġe",
        "gg"
      ],
      [
        "Ġanoin",
        "ts"
      ],
      [
        "Ġshe",
        "ars"
      ],
      [
        "Ġhe",
        "ars"
      ],
      [
        "Ġhe",
        "art"
      ],
      [
        "Ġclos",
        "e"
      ],
      [
        "Ġclos",
        "es"
      ],
      [
        "Ġfund",
        "s"
      ],
      [
        "Ġweek",
        "ly"
      ],
      [
        "Ġcol",
        "t"
      ],
      [
        "Ġseek",
        "s"
      ],
      [
        "Ġbuild",
        "ers"
      ],
      [
        "Ġgr",
        "ound"
      ],
      [
        "Ġmak",
        "e"
      ],
      [
        "Ġle",
        "aves"
      ],
      [
        "Ġle",
        "gal"
      ],
      [
        "Ġle",
        "vel"
      ],
      [
        "ĠR",
        "aw"
      ],
      [
        "Ġcle",
        "ars"
      ],
      [
        "Ġnam",
        "es"
      ],
      [
        "Ġcros",
        "sing"
      ],
      [
        "Ġcrumbl",
        "es"
      ],
      [
        "Ġdeli",
        "vers"
      ],
      [
        "Ġkeep",
        "s"
      ],
      [
        "Ġwai",
        "ts"
      ],
      [
        "Ġfinish",
        "es"
      ],
      [
        "Ġquar",
        "ry"
      ],
      [
        "Ġreinfor",
        "ce"
      ],
      [
        "Ġpas",
        "s"
      ],
      [
        "Ġsupp",
        "ly"
      ],
      [
        "ĠG",
        "em"
      ],
      [
        "ĠG",
        "old"
      ],
      [
        "Ġmil",
        "l"
      ],
      [
        "Ġmil",
        "ls"
      ],
      [
        "Ġmason",
        "s"
      ],
      [
        "Ġmason",
        "ry"
      ],
      [
        "Ġbund",
        "le"
      ],
      [
        "Ġbund",
        "les"
      ],
      [
        "Ġremain",
        "s"
      ],
      [
        "Ġ33",
        "0"
      ],
      [
        "su",
        "re"
      ],
      [
        "scal",
        "e"
      ],
      [
        "Ġmo",
        "ves"
      ],
      [
        "Ġcan",
        "not"
      ],
      [
        "ĠTwent",
        "y"
      ],
      [
        "Ġwhol",
        "e"
      ],
      [
        "Ġbak",
        "ery"
      ],
      [
        "Ġlos",
        "es"
      ],
      [
        "Ġdis",
        "tant"
      ],
      [
        "Ġdef",
        "ers"
      ],
      [
        "Ġpos",
        "ts"
      ],
      [
        "Ġpres",
        "sure"
      ],
      [
        "ĠWeek",
        "ly"
      ],
      [
        "Ġansw",
        "ers"
      ],
      [
        "Ġever",
        "y"
      ],
      [
        "Ġegg",
        "s"
      ],
      [
        "ĠGem",
        "s"
      ],
      [
        "e",
        "eds"
      ],
      [
        "i",
        "gh"
      ],
      [
        "t",
        "il"
      ],
      [
        "ow",
        "f"
      ],
      [
        "Ġf",
        "eeds"
      ],
      [
        "ol",
        "en"
      ],
      [
        "Ġst",
        "olen"
      ],
      [
        "Ġn",
        "igh"
      ],
      [
        "Ġcom",
        "es"
      ],
      [
        "ĠS",
        "moke"
      ],
      [
        "Ġsl",
        "ays"
      ],
      [
        "Ġcoun",
        "t"
      ],
      [
        "Ġchimney",
        "s"
      ],
      [
        "Ġun",
        "til"
      ],
      [
        "Ġburn",
        "s"
      ],
      [
        "Ġgather",
        "s"
      ],
      [
        "Ġnigh",
        "ts"
      ],
      [
        "Ġshort",
        "age"
      ],
      [
        "or",
        "f"
      ],
      [
        "Tar",
        "ow"
      ],
      [
        "S",
        "ome"
      ],
      [
        "Bel",
        "um"
      ],
      [
        "Fen",
        "ow"
      ],
      [
        "ĠFen",
        "etheth"
      ],
      [
        "a",
        "mo"
      ],
      [
        "Bel",
        "or"
      ],
      [
        "Tar",
        "en"
      ],
      [
        "a",
        "f"
      ],
      [
        "d",
        "e"
      ],
      [
        "Bel",
        "ow"
      ],
      [
        "Fen",
        "um"
      ],
      [
        "Fen",
        "a"
      ],
      [
        "Nor",
        "ash"
      ],
      [
        "Bel",
        "en"
      ],
      [
        "Fen",
        "en"
      ],
      [
        "Tar",
        "um"
      ],
      [
        "Nor",
        "en"
      ],
      [
        "Fen",
        "or"
      ],
      [
        "Bel",
        "eth"
      ],
      [
        "Fen",
        "il"
      ],
      [
        "Tar",
        "or"
      ],
      [
        "Tar",
        "il"
      ],
      [
        "Tar",
        "ash"
      ],
      [
        "Bel",
        "ash"
      ],
      [
        "Nor",
        "um"
      ],
      [
        "Tar",
        "a"
      ],
      [
        "Nor",
        "or"
      ],
      [
        "Bel",
        "a"
      ],
      [
        "Nor",
        "il"
      ],
      [
        "Nor",
        "ow"
      ],
      [
        "Bel",
        "il"
      ],
      [
        "Fen",
        "ash"
      ],
      [
        "Nor",
        "a"
      ],
      [
        "Nor",
        "eth"
      ],
      [
        "Fen",
        "eth"
      ],
      [
        "Ġ",
        "Hunger"
      ],
      [
        "ĠA",
        "n"
      ],
      [
        "ĠA",
        "bbey"
      ],
      [
        "ethe",
        "t"
      ],
      [
        "ĠR",
        "oadside"
      ],
      [
        "Tar",
        "eth"
      ],
      [
        "or",
        "g"
      ],
      [
        "en",
        "g"
      ],
      [
        "M",
        "ason"
      ],
      [
        "a",
        "ho"
      ],
      [
        "um",
        "g"
      ],
      [
        "Mason",
        "s"
      ],
      [
        "Ġwh",
        "o"
      ],
      [
        "B",
        "read"
      ],
      [
        "Ġsl",
        "ain"
      ],
      [
        "or",
        "w"
      ],
      [
        "um",
        "h"
      ],
      [
        "il",
        "w"
      ],
      [
        "Ġli",
        "ving"
      ],
      [
        "L",
        "ambs"
      ],
      [
        "O",
        "n"
      ],
      [
        "R",
        "oadside"
      ],
      [
        "S",
        "moke"
      ],
      [
        "Ġf",
        "ear"
      ],
      [
        "Ġcom",
        "ing"
      ],
      [
        "Ġwai",
        "ting"
      ],
      [
        "Ġsupp",
        "ort"
      ],
      [
        "R",
        "oad"
      ],
      [
        "f",
        "ice"
      ],
      [
        "Ġof",
        "fice"
      ],
      [
        "G",
        "o"
      ],
      [
        "I",
        "n"
      ],
      [
        "il",
        "g"
      ],
      [
        "Go",
        "blin"
      ],
      [
        "ow",
        "h"
      ],
      [
        "P",
        "on"
      ],
      [
        "Pon",
        "y"
      ],
      [
        "N",
        "ew"
      ],
      [
        "S",
        "tone"
      ],
      [
        "Ġc",
        "ame"
      ],
      [
        "eth",
        "f"
      ],
      [
        "aw",
        "i"
      ],
      [
        "H",
        "and"
      ],
      [
        "S",
        "ervice"
      ],
      [
        "Ġran",
        "k"
      ],
      [
        "W",
        "ool"
      ],
      [
        "a",
        "fe"
      ],
      [
        "ar",
        "ing"
      ],
      [
        "Ġshe",
        "aring"
      ],
      [
        "L",
        "e"
      ],
      [
        "a",
        "ving"
      ],
      [
        "Le",
        "aving"
      ],
      [
        "A",
        "bbey"
      ],
      [
        "W",
        "ood"
      ],
      [
        "c",
        "ut"
      ],
      [
        "Wood",
        "cut"
      ],
      [
        "Woodcut",
        "ting"
      ],
      [
        "c",
        "om"
      ],
      [
        "el",
        "com"
      ],
      [
        "ow",
        "d"
      ],
      [
        "Ġw",
        "elcom"
      ],
      [
        "ĠC",
        "o"
      ],
      [
        "Ġwelcom",
        "ed"
      ],
      [
        "A",
        "t"
      ],
      [
        "S",
        "he"
      ],
      [
        "T",
        "h"
      ],
      [
        "le",
        "ted"
      ],
      [
        "Ġcomp",
        "leted"
      ],
      [
        "She",
        "ep"
      ],
      [
        "Th",
        "ere"
      ],
      [
        "B",
        "u"
      ],
      [
        "F",
        "ood"
      ],
      [
        "M",
        "oney"
      ],
      [
        "Ġ",
        "ar"
      ],
      [
        "on",
        "g"
      ],
      [
        "Ġl",
        "ong"
      ],
      [
        "ild",
        "ers"
      ],
      [
        "Some",
        "one"
      ],
      [
        "Bu",
        "ilders"
      ],
      [
        "Ġar",
        "ose"
      ],
      [
        "M",
        "issing"
      ],
      [
        "l",
        "am"
      ],
      [
        "Ġb",
        "lam"
      ],
      [
        "li",
        "es"
      ],
      [
        "Ġburn",
        "ing"
      ],
      [
        "Ġsupp",
        "lies"
      ],
      [
        "Ġblam",
        "ed"
      ],
      [
        "Y",
        "ears"
      ],
      [
        "A",
        "n"
      ],
      [
        "en",
        "w"
      ],
      [
        "ash",
        "f"
      ],
      [
        "Ġl",
        "ed"
      ],
      [
        "L",
        "ore"
      ],
      [
        "R",
        "ep"
      ],
      [
        "or",
        "h"
      ],
      [
        "air",
        "s"
      ],
      [
        "Rep",
        "airs"
      ],
      [
        "C",
        "alves"
      ],
      [
        "ow",
        "w"
      ],
      [
        "ash",
        "m"
      ],
      [
        "ag",
        "a"
      ],
      [
        "um",
        "w"
      ],
      [
        "G",
        "oods"
      ],
      [
        "il",
        "h"
      ],
      [
        "um",
        "d"
      ],
      [
        "eth",
        "m"
      ],
      [
        "en",
        "d"
      ],
      [
        "ow",
        "g"
      ],
      [
        "a",
        "fo"
      ],
      [
        "en",
        "h"
      ],
      [
        "a",
        "h"
      ],
      [
        "Ġ2",
        "0"
      ],
      [
        "ĠNora",
        "eth"
      ],
      [
        "Ġ10",
        "2"
      ],
      [
        "en",
        "fe"
      ],
      [
        "Ġ7",
        "6"
      ],
      [
        "um",
        "mo"
      ],
      [
        "Ġ14",
        "4"
      ],
      [
        "amo",
        "o"
      ],
      [
        "il",
        "mo"
      ],
      [
        "Ġ2",
        "9"
      ],
      [
        "en",
        "wi"
      ],
      [
        "Ġ6",
        "0"
      ],
      [
        "Ġ6",
        "1"
      ],
      [
        "Ġ8",
        "8"
      ],
      [
        "Ġ15",
        "5"
      ],
      [
        "Ġ18",
        "8"
      ],
      [
        "Ġ17",
        "8"
      ],
      [
        "or",
        "ga"
      ],
      [
        "ow",
        "fo"
      ],
      [
        "ow",
        "ga"
      ],
      [
        "il",
        "fe"
      ],
      [
        "Ġ6",
        "9"
      ],
      [
        "um",
        "fe"
      ],
      [
        "ash",
        "w"
      ],
      [
        "Ġ15",
        "9"
      ],
      [
        "Ġ4",
        "3"
      ],
      [
        "Ġ10",
        "0"
      ],
      [
        "Ġ13",
        "6"
      ],
      [
        "orm",
        "e"
      ],
      [
        "en",
        "de"
      ],
      [
        "ild",
        "e"
      ],
      [
        "Ġ12",
        "1"
      ],
      [
        "Ġ12",
        "4"
      ],
      [
        "il",
        "fo"
      ],
      [
        "Ġ3",
        "9"
      ],
      [
        "Ġ7",
        "7"
      ],
      [
        "Ġ14",
        "7"
      ],
      [
        "Ġ18",
        "9"
      ],
      [
        "Ġ10",
        "3"
      ],
      [
        "Ġ13",
        "1"
      ],
      [
        "Ġ9",
        "1"
      ],
      [
        "en",
        "ho"
      ],
      [
        "Ġ6",
        "3"
      ],
      [
        "Ġ7",
        "3"
      ],
      [
        "Ġ14",
        "5"
      ],
      [
        "Ġ8",
        "4"
      ],
      [
        "en",
        "mo"
      ],
      [
        "um",
        "de"
      ],
      [
        "Ġ3",
        "5"
      ],
      [
        "Ġ18",
        "1"
      ],
      [
        "Ġ4",
        "4"
      ],
      [
        "Ġ8",
        "6"
      ],
      [
        "Ġ11",
        "2"
      ],
      [
        "um",
        "ga"
      ],
      [
        "ĠFena",
        "eth"
      ],
      [
        "Ġ3",
        "0"
      ],
      [
        "Ġ6",
        "8"
      ],
      [
        "Ġ18",
        "0"
      ],
      [
        "Ġ4",
        "0"
      ],
      [
        "Ġ8",
        "2"
      ],
      [
        "Ġ13",
        "8"
      ],
      [
        "Ġ9",
        "2"
      ],
      [
        "Ġ9",
        "3"
      ],
      [
        "Ġ16",
        "2"
      ],
      [
        "Ġ16",
        "5"
      ],
      [
        "Ġ11",
        "3"
      ],
      [
        "Ġ11",
        "6"
      ],
      [
        "or",
        "mo"
      ],
      [
        "or",
        "fo"
      ],
      [
        "ow",
        "mo"
      ],
      [
        "ow",
        "wi"
      ],
      [
        "ag",
        "at"
      ],
      [
        "Ġ15",
        "0"
      ],
      [
        "Ġ7",
        "1"
      ],
      [
        "Ġ14",
        "1"
      ],
      [
        "Ġ18",
        "2"
      ],
      [
        "Ġ8",
        "0"
      ],
      [
        "Ġ5",
        "3"
      ],
      [
        "Ġ5",
        "5"
      ],
      [
        "Ġ13",
        "4"
      ],
      [
        "Ġ13",
        "7"
      ],
      [
        "Ġ16",
        "4"
      ],
      [
        "Ġ16",
        "6"
      ],
      [
        "um",
        "fo"
      ],
      [
        "ash",
        "h"
      ],
      [
        "ĠFen",
        "ethe"
      ],
      [
        "Ġ3",
        "1"
      ],
      [
        "Ġ3",
        "7"
      ],
      [
        "Ġ2",
        "1"
      ],
      [
        "Ġ2",
        "6"
      ],
      [
        "Ġ15",
        "1"
      ],
      [
        "Ġ15",
        "6"
      ],
      [
        "Ġ7",
        "9"
      ],
      [
        "Ġ10",
        "4"
      ],
      [
        "Ġ17",
        "1"
      ],
      [
        "Ġ9",
        "6"
      ],
      [
        "Ġ11",
        "9"
      ],
      [
        "Ġ12",
        "3"
      ],
      [
        "Ġ19",
        "8"
      ],
      [
        "en",
        "ga"
      ],
      [
        "il",
        "wi"
      ],
      [
        "ĠNoren",
        "eth"
      ],
      [
        "Ġ2",
        "2"
      ],
      [
        "Ġ6",
        "7"
      ],
      [
        "Ġ14",
        "9"
      ],
      [
        "Ġ18",
        "3"
      ],
      [
        "Ġ18",
        "5"
      ],
      [
        "Ġ8",
        "5"
      ],
      [
        "Ġ5",
        "2"
      ],
      [
        "Ġ5",
        "7"
      ],
      [
        "Ġ10",
        "1"
      ],
      [
        "Ġ17",
        "7"
      ],
      [
        "Ġ9",
        "0"
      ],
      [
        "Ġ9",
        "9"
      ],
      [
        "owm",
        "e"
      ],
      [
        "ilm",
        "e"
      ],
      [
        "ĠNor",
        "ethe"
      ],
      [
        "Ġ15",
        "4"
      ],
      [
        "Ġ7",
        "8"
      ],
      [
        "Ġ14",
        "0"
      ],
      [
        "Ġ4",
        "5"
      ],
      [
        "Ġ4",
        "7"
      ],
      [
        "Ġ17",
        "4"
      ],
      [
        "Ġ11",
        "0"
      ],
      [
        "or",
        "wi"
      ],
      [
        "ĠNoreth",
        "or"
      ],
      [
        "Ġ3",
        "2"
      ],
      [
        "Ġ6",
        "5"
      ],
      [
        "Ġ4",
        "8"
      ],
      [
        "Ġ5",
        "1"
      ],
      [
        "Ġ10",
        "5"
      ],
      [
        "Ġ17",
        "3"
      ],
      [
        "Ġ17",
        "9"
      ],
      [
        "Ġ16",
        "1"
      ],
      [
        "Ġ16",
        "3"
      ],
      [
        "Ġ19",
        "6"
      ],
      [
        "af",
        "el"
      ],
      [
        "a",
        "hol"
      ],
      [
        "ĠBela",
        "eth"
      ],
      [
        "ĠNoreth",
        "o"
      ],
      [
        "Ġ15",
        "2"
      ],
      [
        "Ġ15",
        "8"
      ],
      [
        "Ġ7",
        "5"
      ],
      [
        "Ġ5",
        "9"
      ],
      [
        "Ġ13",
        "5"
      ],
      [
        "Ġ17",
        "5"
      ],
      [
        "Ġ9",
        "7"
      ],
      [
        "umm",
        "e"
      ],
      [
        "en",
        "fo"
      ],
      [
        "ow",
        "de"
      ],
      [
        "ash",
        "g"
      ],
      [
        "ĠNorash",
        "a"
      ],
      [
        "ĠFenow",
        "eth"
      ],
      [
        "Ġ14",
        "8"
      ],
      [
        "Ġ5",
        "8"
      ],
      [
        "Ġ10",
        "7"
      ],
      [
        "Ġ19",
        "0"
      ],
      [
        "Ġ19",
        "9"
      ],
      [
        "il",
        "ga"
      ],
      [
        "ĠNorash",
        "o"
      ],
      [
        "ĠNoril",
        "eth"
      ],
      [
        "Ġ3",
        "4"
      ],
      [
        "Ġ2",
        "7"
      ],
      [
        "Ġ7",
        "4"
      ],
      [
        "Ġ8",
        "7"
      ],
      [
        "Ġ13",
        "9"
      ],
      [
        "Ġ11",
        "5"
      ],
      [
        "Ġ19",
        "3"
      ],
      [
        "um",
        "ho"
      ],
      [
        "ĠNor",
        "ethet"
      ],
      [
        "ĠFenum",
        "owwick"
      ],
      [
        "ĠBeleth",
        "a"
      ],
      [
        "Ġ6",
        "6"
      ],
      [
        "Ġ15",
        "3"
      ],
      [
        "Ġ14",
        "3"
      ],
      [
        "Ġ14",
        "6"
      ],
      [
        "Ġ5",
        "0"
      ],
      [
        "Ġ5",
        "6"
      ],
      [
        "Ġ17",
        "2"
      ],
      [
        "Ġ9",
        "8"
      ],
      [
        "Ġ11",
        "7"
      ],
      [
        "am",
        "er"
      ],
      [
        "ĠTara",
        "eth"
      ],
      [
        "ĠFenil",
        "eth"
      ],
      [
        "ĠBelum",
        "ash"
      ],
      [
        "ĠBelash",
        "o"
      ],
      [
        "Ġ3",
        "8"
      ],
      [
        "Ġ15",
        "7"
      ],
      [
        "Ġ18",
        "6"
      ],
      [
        "Ġ4",
        "1"
      ],
      [
        "Ġ17",
        "0"
      ],
      [
        "Ġ16",
        "9"
      ],
      [
        "Ġ12",
        "5"
      ],
      [
        "Ġ12",
        "6"
      ],
      [
        "Ġ19",
        "5"
      ],
      [
        "ĠTaren",
        "ilmoor"
      ],
      [
        "ĠNorow",
        "ethmere"
      ],
      [
        "ow",
        "ho"
      ],
      [
        "ĠNorash",
        "as"
      ],
      [
        "ĠFenum",
        "ash"
      ],
      [
        "ĠFenum",
        "eth"
      ],
      [
        "ĠTaril",
        "eth"
      ],
      [
        "Ġ6",
        "4"
      ],
      [
        "Ġ7",
        "2"
      ],
      [
        "Ġ14",
        "2"
      ],
      [
        "Ġ18",
        "4"
      ],
      [
        "Ġ4",
        "6"
      ],
      [
        "Ġ4",
        "9"
      ],
      [
        "Ġ8",
        "3"
      ],
      [
        "Ġ10",
        "6"
      ],
      [
        "Ġ13",
        "2"
      ],
      [
        "Ġ13",
        "3"
      ],
      [
        "Ġ16",
        "7"
      ],
      [
        "Ġ16",
        "8"
      ],
      [
        "ĠTara",
        "ilford"
      ],
      [
        "ĠNorow",
        "umwick"
      ],
      [
        "ĠNorow",
        "owford"
      ],
      [
        "a",
        "for"
      ],
      [
        "ow",
        "fe"
      ],
      [
        "um",
        "wi"
      ],
      [
        "ĠFen",
        "ethet"
      ],
      [
        "ĠNorash",
        "enden"
      ],
      [
        "ĠFena",
        "ummoor"
      ],
      [
        "ĠBelash",
        "il"
      ],
      [
        "ĠNorow",
        "eth"
      ],
      [
        "ĠNoreth",
        "a"
      ],
      [
        "ĠTareth",
        "or"
      ],
      [
        "Ġ8",
        "1"
      ],
      [
        "Ġ10",
        "9"
      ],
      [
        "Ġ12",
        "0"
      ],
      [
        "Ġ19",
        "2"
      ],
      [
        "ĠFenor",
        "ethden"
      ],
      [
        "ord",
        "e"
      ],
      [
        "ĠNorash",
        "ashholt"
      ],
      [
        "ĠTarash",
        "a"
      ],
      [
        "ĠTarash",
        "o"
      ],
      [
        "ĠFenor",
        "eth"
      ],
      [
        "ĠFenil",
        "ash"
      ],
      [
        "ĠNoror",
        "agate"
      ],
      [
        "ĠBelash",
        "et"
      ],
      [
        "ĠBelor",
        "eth"
      ],
      [
        "ĠTarum",
        "enmere"
      ],
      [
        "ĠNoreth",
        "um"
      ],
      [
        "Ġ7",
        "0"
      ],
      [
        "Ġ4",
        "2"
      ],
      [
        "Ġ8",
        "9"
      ],
      [
        "Ġ12",
        "7"
      ],
      [
        "ĠNorum",
        "ummoor"
      ],
      [
        "ĠFenum",
        "orford"
      ],
      [
        "ĠBelash",
        "owfell"
      ],
      [
        "ĠBel",
        "ethe"
      ],
      [
        "ĠNorash",
        "et"
      ],
      [
        "ĠTara",
        "ash"
      ],
      [
        "ĠFenum",
        "ethholt"
      ],
      [
        "ĠBelum",
        "eth"
      ],
      [
        "ĠNoror",
        "eth"
      ],
      [
        "ĠBelash",
        "a"
      ],
      [
        "ĠTarum",
        "eth"
      ],
      [
        "ĠTarum",
        "enholt"
      ],
      [
        "ĠFenash",
        "ow"
      ],
      [
        "ĠNoreth",
        "umwick"
      ],
      [
        "Ġ3",
        "6"
      ],
      [
        "Ġ2",
        "5"
      ],
      [
        "Ġ19",
        "4"
      ],
      [
        "ĠTaror",
        "ethgate"
      ],
      [
        "ĠNorash",
        "ethmoor"
      ],
      [
        "ĠTarash",
        "ethholt"
      ],
      [
        "ĠBelen",
        "enwick"
      ],
      [
        "ĠNora",
        "ummoor"
      ],
      [
        "ĠFena",
        "awick"
      ],
      [
        "ĠNorow",
        "orford"
      ],
      [
        "Ġ2",
        "3"
      ],
      [
        "Ġ2",
        "4"
      ],
      [
        "Ġ11",
        "1"
      ],
      [
        "ĠTara",
        "ormoor"
      ],
      [
        "ĠTara",
        "umgate"
      ],
      [
        "ĠTarash",
        "ummere"
      ],
      [
        "ĠNoril",
        "umfell"
      ],
      [
        "ĠNora",
        "ilgate"
      ],
      [
        "ĠTaren",
        "orholt"
      ],
      [
        "ĠFenil",
        "ethfell"
      ],
      [
        "ĠNoren",
        "owden"
      ],
      [
        "ĠTar",
        "ethe"
      ],
      [
        "ĠTara",
        "orfell"
      ],
      [
        "ĠTaren",
        "ethfell"
      ],
      [
        "ĠNoren",
        "ash"
      ],
      [
        "ĠNoren",
        "ethholt"
      ],
      [
        "ĠBelow",
        "eth"
      ],
      [
        "ĠFenash",
        "il"
      ],
      [
        "ĠFenow",
        "enmoor"
      ],
      [
        "ĠNoreth",
        "enwick"
      ],
      [
        "ĠBeleth",
        "or"
      ],
      [
        "ĠTareth",
        "o"
      ],
      [
        "ĠTareth",
        "owmere"
      ],
      [
        "Ġ6",
        "2"
      ],
      [
        "Ġ13",
        "0"
      ],
      [
        "Ġ9",
        "4"
      ],
      [
        "Ġ19",
        "7"
      ],
      [
        "ĠTara",
        "ilwick"
      ],
      [
        "ĠTarash",
        "ethgate"
      ],
      [
        "ĠNoror",
        "owmoor"
      ],
      [
        "ĠNoren",
        "orwick"
      ],
      [
        "ĠTarum",
        "enden"
      ],
      [
        "ĠTarum",
        "ethholt"
      ],
      [
        "ĠBela",
        "enwick"
      ],
      [
        "ĠNorash",
        "e"
      ],
      [
        "ĠNorash",
        "en"
      ],
      [
        "ĠNorum",
        "ilden"
      ],
      [
        "ĠNorum",
        "enmere"
      ],
      [
        "ĠTara",
        "ethmere"
      ],
      [
        "ĠBelen",
        "ash"
      ],
      [
        "ĠNoril",
        "orholt"
      ],
      [
        "ĠFenor",
        "ash"
      ],
      [
        "ĠFena",
        "afell"
      ],
      [
        "ĠNoror",
        "ash"
      ],
      [
        "ĠBelow",
        "ormere"
      ],
      [
        "ĠTaril",
        "ilmoor"
      ],
      [
        "ĠBelil",
        "eth"
      ],
      [
        "ĠBelil",
        "ethwick"
      ],
      [
        "ĠFenash",
        "et"
      ],
      [
        "ĠFeneth",
        "a"
      ],
      [
        "ĠFeneth",
        "ilden"
      ],
      [
        "Ġ18",
        "7"
      ],
      [
        "Ġ10",
        "8"
      ],
      [
        "Ġ9",
        "5"
      ],
      [
        "ĠTara",
        "aford"
      ],
      [
        "ĠTarash",
        "umford"
      ],
      [
        "ĠNoril",
        "ilholt"
      ],
      [
        "ĠTaren",
        "ilholt"
      ],
      [
        "ĠFena",
        "ethholt"
      ],
      [
        "ĠNoror",
        "amoor"
      ],
      [
        "ĠNoror",
        "umford"
      ],
      [
        "ĠBelash",
        "ethwick"
      ],
      [
        "ĠBela",
        "umgate"
      ],
      [
        "ĠBeleth",
        "owholt"
      ],
      [
        "ĠNoretheth",
        "ford"
      ],
      [
        "ĠTara",
        "ilgate"
      ],
      [
        "ĠTara",
        "enholt"
      ],
      [
        "ĠTarash",
        "owgate"
      ],
      [
        "ĠBelen",
        "ethford"
      ],
      [
        "ĠFenor",
        "ashgate"
      ],
      [
        "ĠTarow",
        "umwick"
      ],
      [
        "ĠBelash",
        "e"
      ],
      [
        "ĠBelash",
        "owmoor"
      ],
      [
        "ĠBelash",
        "ormere"
      ],
      [
        "ĠBelor",
        "ashfell"
      ],
      [
        "ĠFenash",
        "agate"
      ],
      [
        "ĠFenen",
        "ilgate"
      ],
      [
        "ĠFenen",
        "engate"
      ],
      [
        "ĠNoreth",
        "as"
      ],
      [
        "ĠTareth",
        "ow"
      ],
      [
        "Ġ16",
        "0"
      ],
      [
        "Ġ11",
        "8"
      ],
      [
        "Ġ12",
        "2"
      ],
      [
        "Ġ19",
        "1"
      ],
      [
        "enm",
        "e"
      ],
      [
        "ĠNoretheth",
        "mere"
      ],
      [
        "ĠNorash",
        "umgate"
      ],
      [
        "ĠNorash",
        "ethholt"
      ],
      [
        "ĠTara",
        "aden"
      ],
      [
        "ĠTara",
        "orden"
      ],
      [
        "ĠFenum",
        "ashden"
      ],
      [
        "ĠBelen",
        "ilford"
      ],
      [
        "ĠBelen",
        "ashmere"
      ],
      [
        "ĠTarow",
        "umden"
      ],
      [
        "ĠBelum",
        "owford"
      ],
      [
        "ĠNoror",
        "orwick"
      ],
      [
        "ĠBela",
        "umwick"
      ],
      [
        "ĠBelil",
        "ilwick"
      ],
      [
        "ĠNoreth",
        "orholt"
      ],
      [
        "ĠNoreth",
        "ilmoor"
      ],
      [
        "or",
        "fe"
      ],
      [
        "or",
        "ho"
      ],
      [
        "ĠNorash",
        "ilholt"
      ],
      [
        "ĠBelen",
        "owgate"
      ],
      [
        "ĠBelen",
        "enden"
      ],
      [
        "ĠBelen",
        "ilwick"
      ],
      [
        "ĠFenor",
        "um"
      ],
      [
        "ĠFenil",
        "ethford"
      ],
      [
        "ĠBelum",
        "owwick"
      ],
      [
        "ĠNoren",
        "enwick"
      ],
      [
        "ĠNoren",
        "orholt"
      ],
      [
        "ĠBelash",
        "um"
      ],
      [
        "ĠBelow",
        "ummere"
      ],
      [
        "ĠTaril",
        "ash"
      ],
      [
        "ĠTarum",
        "enwick"
      ],
      [
        "ĠFenash",
        "engate"
      ],
      [
        "ĠBeleth",
        "o"
      ],
      [
        "ĠTareth",
        "agate"
      ],
      [
        "Ġ2",
        "8"
      ],
      [
        "Ġ12",
        "9"
      ],
      [
        "ĠTara",
        "enwick"
      ],
      [
        "ĠTarash",
        "amoor"
      ],
      [
        "ĠTarash",
        "owmere"
      ],
      [
        "ĠFena",
        "aden"
      ],
      [
        "ĠFenil",
        "enmere"
      ],
      [
        "ĠFenil",
        "amoor"
      ],
      [
        "ĠFenil",
        "umden"
      ],
      [
        "ĠBelum",
        "umfell"
      ],
      [
        "ĠBelow",
        "ilmere"
      ],
      [
        "ĠNorow",
        "ilden"
      ],
      [
        "ĠTarum",
        "ilgate"
      ],
      [
        "ĠBela",
        "enmere"
      ],
      [
        "ĠBelil",
        "ilfell"
      ],
      [
        "ĠFenash",
        "owden"
      ],
      [
        "ĠFenash",
        "ashfell"
      ],
      [
        "ĠTaror",
        "ashmoor"
      ],
      [
        "ĠTara",
        "enmoor"
      ],
      [
        "ĠTarash",
        "aford"
      ],
      [
        "ĠBelen",
        "eth"
      ],
      [
        "ĠNoril",
        "owfell"
      ],
      [
        "ĠNoril",
        "owgate"
      ],
      [
        "ĠNoril",
        "enford"
      ],
      [
        "ĠNoril",
        "umholt"
      ],
      [
        "ĠNora",
        "enden"
      ],
      [
        "ĠTaren",
        "owford"
      ],
      [
        "ĠTarow",
        "eth"
      ],
      [
        "ĠTarow",
        "ilgate"
      ],
      [
        "ĠTarow",
        "ilden"
      ],
      [
        "ĠNoror",
        "enmere"
      ],
      [
        "ĠBelash",
        "umfell"
      ],
      [
        "ĠBelow",
        "owfell"
      ],
      [
        "ĠBelor",
        "enden"
      ],
      [
        "ĠTarum",
        "umwick"
      ],
      [
        "ĠBela",
        "ilholt"
      ],
      [
        "ĠBela",
        "umden"
      ],
      [
        "ĠBela",
        "enfell"
      ],
      [
        "ĠFenen",
        "ethmoor"
      ],
      [
        "ĠTaror",
        "eth"
      ],
      [
        "ĠTaror",
        "ashgate"
      ],
      [
        "ĠTaror",
        "ethfell"
      ],
      [
        "ĠNoreth",
        "amoor"
      ],
      [
        "ĠBeleth",
        "en"
      ],
      [
        "ĠBeleth",
        "owfell"
      ],
      [
        "ĠTareth",
        "a"
      ],
      [
        "Ġ12",
        "8"
      ],
      [
        "ĠNorum",
        "ilgate"
      ],
      [
        "ĠTara",
        "afell"
      ],
      [
        "ĠTara",
        "ilfell"
      ],
      [
        "ĠTarash",
        "ethford"
      ],
      [
        "ĠFenor",
        "enmere"
      ],
      [
        "ĠFenor",
        "orholt"
      ],
      [
        "ĠNora",
        "amere"
      ],
      [
        "ĠTaren",
        "aden"
      ],
      [
        "ĠTaren",
        "ummoor"
      ],
      [
        "ĠFena",
        "owden"
      ],
      [
        "ĠFena",
        "ashden"
      ],
      [
        "ĠFena",
        "ethgate"
      ],
      [
        "ĠBelow",
        "ashmoor"
      ],
      [
        "ĠBela",
        "awick"
      ],
      [
        "ĠFenen",
        "awick"
      ],
      [
        "ĠFenen",
        "ashwick"
      ],
      [
        "ĠTaror",
        "ethden"
      ],
      [
        "ĠFeneth",
        "enden"
      ],
      [
        "ĠFeneth",
        "ilwick"
      ],
      [
        "ĠFeneth",
        "agate"
      ],
      [
        "ĠNorum",
        "ashmoor"
      ],
      [
        "ĠTara",
        "awick"
      ],
      [
        "ĠFenum",
        "ilden"
      ],
      [
        "ĠFenum",
        "enholt"
      ],
      [
        "ĠFenum",
        "umgate"
      ],
      [
        "ĠTarash",
        "e"
      ],
      [
        "ĠTarash",
        "um"
      ],
      [
        "ĠTarash",
        "ilmere"
      ],
      [
        "ĠFenor",
        "ilmoor"
      ],
      [
        "ĠNora",
        "enwick"
      ],
      [
        "ĠTarow",
        "awick"
      ],
      [
        "ĠFena",
        "ashgate"
      ],
      [
        "ĠBelum",
        "ummoor"
      ],
      [
        "ĠNoren",
        "engate"
      ],
      [
        "ĠNoren",
        "owford"
      ],
      [
        "ĠBelash",
        "en"
      ],
      [
        "ĠBelash",
        "ow"
      ],
      [
        "ĠTaril",
        "ummere"
      ],
      [
        "ĠBela",
        "orholt"
      ],
      [
        "ĠBela",
        "aden"
      ],
      [
        "ĠTaror",
        "ilholt"
      ],
      [
        "ĠTaror",
        "ormoor"
      ],
      [
        "ĠFenow",
        "umholt"
      ],
      [
        "ĠNoreth",
        "ashmere"
      ],
      [
        "ĠFeneth",
        "engate"
      ],
      [
        "ĠTareth",
        "as"
      ],
      [
        "ĠTareth",
        "enford"
      ],
      [
        "Ġ5",
        "4"
      ],
      [
        "ĠNorash",
        "owmere"
      ],
      [
        "ĠTara",
        "owgate"
      ],
      [
        "ĠTara",
        "ilmere"
      ],
      [
        "ĠNora",
        "ethmere"
      ],
      [
        "ĠTarow",
        "ashford"
      ],
      [
        "ĠTarow",
        "ilfell"
      ],
      [
        "ĠFenil",
        "ilholt"
      ],
      [
        "ĠFenil",
        "amere"
      ],
      [
        "ĠNoror",
        "owgate"
      ],
      [
        "ĠBelash",
        "ashholt"
      ],
      [
        "ĠBelow",
        "owford"
      ],
      [
        "ĠBelor",
        "ethmoor"
      ],
      [
        "ĠBela",
        "afell"
      ],
      [
        "ĠBela",
        "orfell"
      ],
      [
        "ĠBelil",
        "umford"
      ],
      [
        "ĠTaror",
        "enholt"
      ],
      [
        "ĠTaror",
        "afell"
      ],
      [
        "ĠTaror",
        "ilmoor"
      ],
      [
        "ĠFenow",
        "orford"
      ],
      [
        "ĠBeleth",
        "ilford"
      ],
      [
        "ĠFeneth",
        "enholt"
      ],
      [
        "ĠFeneth",
        "ilholt"
      ],
      [
        "ĠTareth",
        "ormoor"
      ],
      [
        "ĠTaretheth",
        "moor"
      ],
      [
        "ĠNorash",
        "il"
      ],
      [
        "ĠNorash",
        "ummere"
      ],
      [
        "ĠNorash",
        "amoor"
      ],
      [
        "ĠNorash",
        "orholt"
      ],
      [
        "ĠNorash",
        "engate"
      ],
      [
        "ĠTara",
        "owmoor"
      ],
      [
        "ĠTara",
        "amere"
      ],
      [
        "ĠFenum",
        "ashgate"
      ],
      [
        "ĠTarash",
        "ow"
      ],
      [
        "ĠTarash",
        "il"
      ],
      [
        "ĠTarash",
        "enwick"
      ],
      [
        "ĠNoril",
        "or"
      ],
      [
        "ĠFenor",
        "owwick"
      ],
      [
        "ĠNora",
        "ummere"
      ],
      [
        "ĠNora",
        "owden"
      ],
      [
        "ĠTaren",
        "awick"
      ],
      [
        "ĠTarow",
        "afell"
      ],
      [
        "ĠFena",
        "ormoor"
      ],
      [
        "ĠFena",
        "orfell"
      ],
      [
        "ĠFena",
        "enfell"
      ],
      [
        "ĠFenil",
        "ummere"
      ],
      [
        "ĠFenil",
        "enford"
      ],
      [
        "ĠFenil",
        "owmere"
      ],
      [
        "ĠFenil",
        "ashfell"
      ],
      [
        "ĠFenil",
        "aholt"
      ],
      [
        "ĠBelum",
        "enden"
      ],
      [
        "ĠBelum",
        "aford"
      ],
      [
        "ĠNoror",
        "owwick"
      ],
      [
        "ĠNoror",
        "ilmoor"
      ],
      [
        "ĠNoror",
        "ethholt"
      ],
      [
        "ĠNoren",
        "enholt"
      ],
      [
        "ĠNoren",
        "aholt"
      ],
      [
        "ĠBelor",
        "um"
      ],
      [
        "ĠBelor",
        "engate"
      ],
      [
        "ĠTaril",
        "owmere"
      ],
      [
        "ĠTaril",
        "ashfell"
      ],
      [
        "ĠTarum",
        "owfell"
      ],
      [
        "ĠBela",
        "ashwick"
      ],
      [
        "ĠFenash",
        "ummere"
      ],
      [
        "ĠFenash",
        "amoor"
      ],
      [
        "ĠTaror",
        "umfell"
      ],
      [
        "ĠTaror",
        "orwick"
      ],
      [
        "ĠNoreth",
        "aden"
      ],
      [
        "ĠNoreth",
        "ashfell"
      ],
      [
        "ĠBeleth",
        "ummere"
      ],
      [
        "ĠTareth",
        "il"
      ],
      [
        "ĠTareth",
        "enfell"
      ],
      [
        "Ġ17",
        "6"
      ],
      [
        "Ġ11",
        "4"
      ],
      [
        "ĠNorash",
        "umford"
      ],
      [
        "ĠNorash",
        "enmoor"
      ],
      [
        "ĠNorum",
        "agate"
      ],
      [
        "ĠFenum",
        "ilgate"
      ],
      [
        "ĠFenum",
        "ormere"
      ],
      [
        "ĠFenum",
        "ashmere"
      ],
      [
        "ĠTarash",
        "umden"
      ],
      [
        "ĠBelen",
        "owden"
      ],
      [
        "ĠBelen",
        "enfell"
      ],
      [
        "ĠNoril",
        "enwick"
      ],
      [
        "ĠNoril",
        "ethmoor"
      ],
      [
        "ĠFenor",
        "owmere"
      ],
      [
        "ĠNora",
        "ilford"
      ],
      [
        "ĠNora",
        "engate"
      ],
      [
        "ĠNora",
        "ethfell"
      ],
      [
        "ĠTaren",
        "umgate"
      ],
      [
        "ĠTaren",
        "ethwick"
      ],
      [
        "ĠTarow",
        "ilwick"
      ],
      [
        "ĠTarow",
        "ashmoor"
      ],
      [
        "ĠBelum",
        "owmoor"
      ],
      [
        "ĠNoren",
        "owholt"
      ],
      [
        "ĠNoren",
        "orford"
      ],
      [
        "ĠBelash",
        "awick"
      ],
      [
        "ĠBelash",
        "agate"
      ],
      [
        "ĠBelash",
        "ashmere"
      ],
      [
        "ĠBelow",
        "ethford"
      ],
      [
        "ĠBelor",
        "enford"
      ],
      [
        "ĠNorow",
        "ethden"
      ],
      [
        "ĠTarum",
        "owgate"
      ],
      [
        "ĠTarum",
        "owwick"
      ],
      [
        "ĠTarum",
        "umholt"
      ],
      [
        "ĠBela",
        "ethfell"
      ],
      [
        "ĠFenen",
        "umfell"
      ],
      [
        "ĠFenen",
        "enholt"
      ],
      [
        "ĠFenen",
        "ormoor"
      ],
      [
        "ĠFenow",
        "enford"
      ],
      [
        "ĠNoreth",
        "ilgate"
      ],
      [
        "ĠBeleth",
        "ashholt"
      ],
      [
        "ĠFeneth",
        "afell"
      ],
      [
        "ĠBeletheth",
        "holt"
      ],
      [
        "il",
        "ho"
      ],
      [
        "ĠNorash",
        "umfell"
      ],
      [
        "ĠNorash",
        "owden"
      ],
      [
        "ĠTara",
        "umford"
      ],
      [
        "ĠTara",
        "orford"
      ],
      [
        "ĠFenum",
        "owholt"
      ],
      [
        "ĠFenum",
        "ashfell"
      ],
      [
        "ĠFenum",
        "ethfell"
      ],
      [
        "ĠTarash",
        "orfell"
      ],
      [
        "ĠTarash",
        "ethwick"
      ],
      [
        "ĠTarash",
        "et"
      ],
      [
        "ĠBelen",
        "ashholt"
      ],
      [
        "ĠBelen",
        "orden"
      ],
      [
        "ĠNoril",
        "as"
      ],
      [
        "ĠFenor",
        "ethwick"
      ],
      [
        "ĠNora",
        "ash"
      ],
      [
        "ĠNora",
        "enford"
      ],
      [
        "ĠNora",
        "ethford"
      ],
      [
        "ĠTaren",
        "ash"
      ],
      [
        "ĠTaren",
        "owwick"
      ],
      [
        "ĠTaren",
        "ethholt"
      ],
      [
        "ĠFenil",
        "umfell"
      ],
      [
        "ĠFenil",
        "owholt"
      ],
      [
        "ĠFenil",
        "ilford"
      ],
      [
        "ĠFenil",
        "afell"
      ],
      [
        "ĠBelum",
        "orford"
      ],
      [
        "ĠNoror",
        "ethden"
      ],
      [
        "ĠBelash",
        "enford"
      ],
      [
        "ĠBelash",
        "umden"
      ],
      [
        "ĠBelow",
        "owden"
      ],
      [
        "ĠBelor",
        "ilford"
      ],
      [
        "ĠNorow",
        "ilholt"
      ],
      [
        "ĠNorow",
        "owden"
      ],
      [
        "ĠTaril",
        "ilwick"
      ],
      [
        "ĠTaril",
        "ethmere"
      ],
      [
        "ĠTarum",
        "umfell"
      ],
      [
        "ĠTarum",
        "ashden"
      ],
      [
        "ĠTarum",
        "ethwick"
      ],
      [
        "ĠBela",
        "ilden"
      ],
      [
        "ĠBelil",
        "et"
      ],
      [
        "ĠFenash",
        "o"
      ],
      [
        "ĠFenash",
        "ashford"
      ],
      [
        "ĠTaror",
        "ashholt"
      ],
      [
        "ĠFenow",
        "owgate"
      ],
      [
        "ĠNoreth",
        "umgate"
      ],
      [
        "ĠBeleth",
        "enfell"
      ],
      [
        "ĠBeleth",
        "orden"
      ],
      [
        "ĠFeneth",
        "o"
      ],
      [
        "ĠFeneth",
        "owfell"
      ],
      [
        "ĠTareth",
        "um"
      ],
      [
        "ĠTareth",
        "owholt"
      ],
      [
        "ĠTareth",
        "enmoor"
      ],
      [
        "ĠNorash",
        "enwick"
      ],
      [
        "ĠNorash",
        "umden"
      ],
      [
        "ĠTara",
        "ilden"
      ],
      [
        "ĠTara",
        "ashden"
      ],
      [
        "ĠFenum",
        "owden"
      ],
      [
        "ĠBelen",
        "aden"
      ],
      [
        "ĠBelen",
        "ashgate"
      ],
      [
        "ĠBelen",
        "orwick"
      ],
      [
        "ĠNoril",
        "ormoor"
      ],
      [
        "ĠNoril",
        "ilmoor"
      ],
      [
        "ĠTaren",
        "owmere"
      ],
      [
        "ĠTaren",
        "orgate"
      ],
      [
        "ĠTarow",
        "ethmere"
      ],
      [
        "ĠFena",
        "ashford"
      ],
      [
        "ĠFena",
        "ethfell"
      ],
      [
        "ĠFenil",
        "ilgate"
      ],
      [
        "ĠFenil",
        "orden"
      ],
      [
        "ĠNoren",
        "ashgate"
      ],
      [
        "ĠBelash",
        "ormoor"
      ],
      [
        "ĠBelash",
        "aholt"
      ],
      [
        "ĠBelow",
        "ormoor"
      ],
      [
        "ĠBelow",
        "ilford"
      ],
      [
        "ĠBelow",
        "engate"
      ],
      [
        "ĠBelow",
        "ilfell"
      ],
      [
        "ĠBelor",
        "ilgate"
      ],
      [
        "ĠBelor",
        "owholt"
      ],
      [
        "ĠBela",
        "umfell"
      ],
      [
        "ĠBela",
        "owwick"
      ],
      [
        "ĠBela",
        "enholt"
      ],
      [
        "ĠBelil",
        "owholt"
      ],
      [
        "ĠBelil",
        "ashden"
      ],
      [
        "ĠFenash",
        "aholt"
      ],
      [
        "ĠFenash",
        "ilmere"
      ],
      [
        "ĠFenen",
        "ethden"
      ],
      [
        "ĠTaror",
        "owden"
      ],
      [
        "ĠFenow",
        "owfell"
      ],
      [
        "ĠBeleth",
        "amoor"
      ],
      [
        "ĠNorash",
        "ummoor"
      ],
      [
        "ĠNorum",
        "owfell"
      ],
      [
        "ĠNorum",
        "owmere"
      ],
      [
        "ĠNorum",
        "amere"
      ],
      [
        "ĠFenum",
        "owfell"
      ],
      [
        "ĠFenum",
        "ormoor"
      ],
      [
        "ĠFenum",
        "owmoor"
      ],
      [
        "ĠTarash",
        "enholt"
      ],
      [
        "ĠTarash",
        "ashgate"
      ],
      [
        "ĠBelen",
        "owwick"
      ],
      [
        "ĠBelen",
        "enholt"
      ],
      [
        "ĠBelen",
        "afell"
      ],
      [
        "ĠFenor",
        "owgate"
      ],
      [
        "ĠNora",
        "ilmere"
      ],
      [
        "ĠTarow",
        "orwick"
      ],
      [
        "ĠTarow",
        "ilmere"
      ],
      [
        "ĠFena",
        "umfell"
      ],
      [
        "ĠFena",
        "enmere"
      ],
      [
        "ĠFena",
        "umholt"
      ],
      [
        "ĠFenil",
        "aden"
      ],
      [
        "ĠBelum",
        "enmere"
      ],
      [
        "ĠBelum",
        "ethmoor"
      ],
      [
        "ĠNoror",
        "ashmoor"
      ],
      [
        "ĠNoror",
        "orgate"
      ],
      [
        "ĠBelash",
        "or"
      ],
      [
        "ĠBelor",
        "ethford"
      ],
      [
        "ĠTaril",
        "or"
      ],
      [
        "ĠTaril",
        "owmoor"
      ],
      [
        "ĠTarum",
        "umden"
      ],
      [
        "ĠBela",
        "owfell"
      ],
      [
        "ĠBela",
        "ilwick"
      ],
      [
        "ĠBelil",
        "orgate"
      ],
      [
        "ĠFenash",
        "ilmoor"
      ],
      [
        "ĠFenen",
        "owmere"
      ],
      [
        "ĠFenow",
        "ashden"
      ],
      [
        "ĠFenow",
        "engate"
      ],
      [
        "ĠNoreth",
        "ummere"
      ],
      [
        "ĠBeleth",
        "aholt"
      ],
      [
        "ĠFeneth",
        "amoor"
      ],
      [
        "ĠFeneth",
        "umford"
      ],
      [
        "ĠNorash",
        "awick"
      ],
      [
        "ĠNorum",
        "amoor"
      ],
      [
        "ĠNorum",
        "ilmere"
      ],
      [
        "ĠTara",
        "ummere"
      ],
      [
        "ĠTara",
        "ilmoor"
      ],
      [
        "ĠTarash",
        "owmoor"
      ],
      [
        "ĠBelen",
        "ashford"
      ],
      [
        "ĠBelen",
        "ethwick"
      ],
      [
        "ĠFenor",
        "ummere"
      ],
      [
        "ĠFenor",
        "owmoor"
      ],
      [
        "ĠFenor",
        "ormere"
      ],
      [
        "ĠFenor",
        "ashholt"
      ],
      [
        "ĠFenor",
        "ashwick"
      ],
      [
        "ĠNora",
        "awick"
      ],
      [
        "ĠNora",
        "aden"
      ],
      [
        "ĠNora",
        "orden"
      ],
      [
        "ĠTaren",
        "ashford"
      ],
      [
        "ĠTarow",
        "ilford"
      ],
      [
        "ĠTarow",
        "ashfell"
      ],
      [
        "ĠTarow",
        "ethmoor"
      ],
      [
        "ĠFena",
        "umford"
      ],
      [
        "ĠFena",
        "ashmoor"
      ],
      [
        "ĠFenil",
        "ashmere"
      ],
      [
        "ĠFenil",
        "ethgate"
      ],
      [
        "ĠBelum",
        "amoor"
      ],
      [
        "ĠNoren",
        "owfell"
      ],
      [
        "ĠNoren",
        "ormere"
      ],
      [
        "ĠBelow",
        "owgate"
      ],
      [
        "ĠBelow",
        "afell"
      ],
      [
        "ĠBelor",
        "enmere"
      ],
      [
        "ĠBelor",
        "orholt"
      ],
      [
        "ĠBelor",
        "umden"
      ],
      [
        "ĠNorow",
        "enmoor"
      ],
      [
        "ĠTarum",
        "ummere"
      ],
      [
        "ĠTarum",
        "orholt"
      ],
      [
        "ĠTarum",
        "owmere"
      ],
      [
        "ĠBelil",
        "enwick"
      ],
      [
        "ĠBelil",
        "ashfell"
      ],
      [
        "ĠBelil",
        "umholt"
      ],
      [
        "ĠBelil",
        "ethford"
      ],
      [
        "ĠFenen",
        "umford"
      ],
      [
        "ĠFenen",
        "ashmere"
      ],
      [
        "ĠFenow",
        "enmere"
      ],
      [
        "ĠFenow",
        "amere"
      ],
      [
        "ĠBeleth",
        "orholt"
      ],
      [
        "ĠBeleth",
        "enholt"
      ],
      [
        "ĠBeleth",
        "ilholt"
      ],
      [
        "ĠBeleth",
        "owford"
      ],
      [
        "ĠFeneth",
        "umgate"
      ],
      [
        "ĠTareth",
        "owfell"
      ],
      [
        "ĠNorash",
        "ilgate"
      ],
      [
        "ĠNorash",
        "owfell"
      ],
      [
        "ĠNorash",
        "ashwick"
      ],
      [
        "ĠNorum",
        "umden"
      ],
      [
        "ĠNorum",
        "ethmoor"
      ],
      [
        "ĠTara",
        "owholt"
      ],
      [
        "ĠTara",
        "ashgate"
      ],
      [
        "ĠTara",
        "ethford"
      ],
      [
        "ĠTarash",
        "ilden"
      ],
      [
        "ĠTarash",
        "orford"
      ],
      [
        "ĠBelen",
        "ilgate"
      ],
      [
        "ĠFenor",
        "aholt"
      ],
      [
        "ĠTaren",
        "owgate"
      ],
      [
        "ĠTaren",
        "ashholt"
      ],
      [
        "ĠTaren",
        "umwick"
      ],
      [
        "ĠTarow",
        "owfell"
      ],
      [
        "ĠTarow",
        "ashgate"
      ],
      [
        "ĠTarow",
        "orgate"
      ],
      [
        "ĠFena",
        "ormere"
      ],
      [
        "ĠFena",
        "owford"
      ],
      [
        "ĠBelum",
        "owgate"
      ],
      [
        "ĠBelum",
        "ilford"
      ],
      [
        "ĠNoror",
        "amere"
      ],
      [
        "ĠNoren",
        "owmere"
      ],
      [
        "ĠNoren",
        "ilwick"
      ],
      [
        "ĠBelow",
        "amoor"
      ],
      [
        "ĠBelow",
        "enford"
      ],
      [
        "ĠBelow",
        "agate"
      ],
      [
        "ĠBelow",
        "orgate"
      ],
      [
        "ĠBelow",
        "umden"
      ],
      [
        "ĠBelor",
        "ashden"
      ],
      [
        "ĠBelor",
        "umwick"
      ],
      [
        "ĠNorow",
        "owfell"
      ],
      [
        "ĠNorow",
        "orwick"
      ],
      [
        "ĠNorow",
        "ethfell"
      ],
      [
        "ĠTarum",
        "ilwick"
      ],
      [
        "ĠBelil",
        "owfell"
      ],
      [
        "ĠFenash",
        "owfell"
      ],
      [
        "ĠFenash",
        "owford"
      ],
      [
        "ĠFenen",
        "ash"
      ],
      [
        "ĠFenen",
        "ummere"
      ],
      [
        "ĠTaror",
        "ash"
      ],
      [
        "ĠTaror",
        "ashden"
      ],
      [
        "ĠTaror",
        "engate"
      ],
      [
        "ĠFenow",
        "owholt"
      ],
      [
        "ĠFenow",
        "orgate"
      ],
      [
        "ĠNoreth",
        "ashden"
      ],
      [
        "ĠNoreth",
        "ashwick"
      ],
      [
        "ĠBeleth",
        "as"
      ],
      [
        "ĠBeleth",
        "il"
      ],
      [
        "ĠBeleth",
        "umfell"
      ],
      [
        "ĠBeleth",
        "ormoor"
      ],
      [
        "ĠFeneth",
        "ilmoor"
      ],
      [
        "ĠTareth",
        "ummere"
      ],
      [
        "ĠTareth",
        "ormere"
      ],
      [
        "ĠBeletheth",
        "gate"
      ],
      [
        "ĠNorash",
        "ilmere"
      ],
      [
        "ĠNorash",
        "ethford"
      ],
      [
        "ĠNorum",
        "aden"
      ],
      [
        "ĠNorum",
        "afell"
      ],
      [
        "ĠNorum",
        "ashfell"
      ],
      [
        "ĠNorum",
        "ashden"
      ],
      [
        "ĠNorum",
        "umholt"
      ],
      [
        "ĠNorum",
        "ethwick"
      ],
      [
        "ĠTara",
        "enmere"
      ],
      [
        "ĠTara",
        "enden"
      ],
      [
        "ĠTara",
        "umwick"
      ],
      [
        "ĠFenum",
        "owmere"
      ],
      [
        "ĠFenum",
        "enfell"
      ],
      [
        "ĠTarash",
        "engate"
      ],
      [
        "ĠBelen",
        "orford"
      ],
      [
        "ĠNoril",
        "ashmoor"
      ],
      [
        "ĠNoril",
        "ashden"
      ],
      [
        "ĠNoril",
        "ummoor"
      ],
      [
        "ĠNoril",
        "orden"
      ],
      [
        "ĠFenor",
        "aden"
      ],
      [
        "ĠNora",
        "ilholt"
      ],
      [
        "ĠNora",
        "owmere"
      ],
      [
        "ĠTaren",
        "afell"
      ],
      [
        "ĠTarow",
        "enwick"
      ],
      [
        "ĠTarow",
        "owholt"
      ],
      [
        "ĠTarow",
        "ilholt"
      ],
      [
        "ĠTarow",
        "owmere"
      ],
      [
        "ĠTarow",
        "ethwick"
      ],
      [
        "ĠFena",
        "amoor"
      ],
      [
        "ĠBelum",
        "ummere"
      ],
      [
        "ĠBelum",
        "afell"
      ],
      [
        "ĠBelum",
        "ashgate"
      ],
      [
        "ĠBelum",
        "umholt"
      ],
      [
        "ĠBelum",
        "amere"
      ],
      [
        "ĠNoror",
        "owmere"
      ],
      [
        "ĠNoror",
        "ashwick"
      ],
      [
        "ĠBelow",
        "umgate"
      ],
      [
        "ĠBelow",
        "orden"
      ],
      [
        "ĠBelow",
        "ethfell"
      ],
      [
        "ĠBelor",
        "ilwick"
      ],
      [
        "ĠNorow",
        "ilgate"
      ],
      [
        "ĠNorow",
        "awick"
      ],
      [
        "ĠNorow",
        "owholt"
      ],
      [
        "ĠNorow",
        "ilford"
      ],
      [
        "ĠTaril",
        "umfell"
      ],
      [
        "ĠTaril",
        "orden"
      ],
      [
        "ĠTarum",
        "aford"
      ],
      [
        "ĠBelil",
        "aford"
      ],
      [
        "ĠFenen",
        "afell"
      ],
      [
        "ĠFenen",
        "ilfell"
      ],
      [
        "ĠTaror",
        "orgate"
      ],
      [
        "ĠFenow",
        "umgate"
      ],
      [
        "ĠFenow",
        "ashford"
      ],
      [
        "ĠNoreth",
        "owwick"
      ],
      [
        "ĠNoreth",
        "umholt"
      ],
      [
        "ĠBeleth",
        "enford"
      ],
      [
        "ĠFeneth",
        "ashmoor"
      ],
      [
        "ĠFeneth",
        "aholt"
      ],
      [
        "ĠTareth",
        "owgate"
      ],
      [
        "ĠTareth",
        "owwick"
      ],
      [
        "ĠTar",
        "ethet"
      ],
      [
        "ĠNorash",
        "ilwick"
      ],
      [
        "ĠNorash",
        "orwick"
      ],
      [
        "ĠNorash",
        "orgate"
      ],
      [
        "ĠNorum",
        "ash"
      ],
      [
        "ĠNorum",
        "owwick"
      ],
      [
        "ĠNorum",
        "enden"
      ],
      [
        "ĠNorum",
        "ilford"
      ],
      [
        "ĠNorum",
        "orwick"
      ],
      [
        "ĠNorum",
        "owford"
      ],
      [
        "ĠNorum",
        "aford"
      ],
      [
        "ĠTara",
[...]
